[PAD]
[EOS]
[UNK]
[CLS]
[SEP]
[MASK]
the
of
and
to
in
a
our
we
for
that
or
is
as
on
with
are
##,
from
by
be
this
million
at
have
not
which
may
an
other
was
will
company
its
financial
you
it
any
these
i
sales
net
quarter
.
has
cash
operating
market
could
business
income
new
were
s
more
if
increase
year
##s
growth
capital
ended
also
interest
all
revenue
but
such
due
than
increased
over
31,
first
investment
â
months
under
results
during
-
securities
total
compared
products
us
would
research
stock
about
been
so
credit
related
services
including
price
rate
tax
their
some
primarily
30,
product
december
can
costs
there
management
based
through
certain
approximately
value
into
operations
cost
##'s
do
##)
report
per
believe
future
up
fiscal
three
higher
##;
additional
think
result
one
million,
information
current
no
assets
significant
should
revenues
well
share
impact
earnings
continue
those
&
see
subject
period
##.
lower
expect
had
just
expenses
expected
what
expense
next
changes
third
last
time
equity
average
june
##â
they
customers
debt
risk
u.s.
september
second
when
development
prior
margin
your
company's
markets
loss
loan
very
common
number
companies
use
while
ability
march
gross
statements
morgan
going
each
shares
same
service
consolidated
performance
within
both
change
material
now
available
where
used
provide
offset
decrease
include
only
loans
##:
##ing
amount
addition,
line
billion
industry
end
bank
part
following
customer
accounting
make
general
potential
because
two
rates
table
most
data
basis
united
##e
segment
terms
eps
upon
##d
estimate
strong
##%
acquisition
commercial
regulatory
exchange
compensation
affect
insurance
does
out
good
associated
like
six
##ed
down
fair
then
estimates
international
losses
investments
effect
included
required
limited
decreased
activities
sale
how
nine
years
production
foreign
risks
economic
flow
existing
however,
after
currently
made
return
gas
factors
we're
annual
provided
demand
balance
being
banking
distribution
high
target
##..
--
investors
marketing
stanley
less
12
generally
further
portfolio
past
agreement
many
purchase
rating
key
given
fourth
issued
asset
sell
reported
weâ
thank
(
prices
between
it's
global
federal
notes
able
technology
continued
effective
question
facility
property
call
quarter,
business,
note
level
adversely
guidance
outstanding
long-term
group
states
profit
inc.
percentage
various
take
##a
decline
##),
item
overall
look
increases
benefit
corporate
margins
real
form
systems
consumer
includes
term
before
still
below
pricing
##s,
analysis
back
adverse
##y
retail
partially
volume
get
really
support
since
clinical
valuation
adjusted
plan
recent
year,
without
estimated
important
senior
maintain
much
condition
little
requirements
coverage
financing
who
range
principal
specific
state
acquired
manufacturing
likely
full
act
date
recorded
large
payments
regarding
received
1
trading
several
and/or
driven
better
inventory
competitive
january
##r
forward-looking
public
order
liabilities
equipment
discussion
versus
##n
offer
2012
please
sold
levels
currency
2011
2010
periods
portion
##x
north
relative
above
ratio
half
·
##t
working
require
liquidity
conditions
contract
oil
percent
program
##"
even
2009
payment
amounts
energy
go
liability
mortgage
power
re
positive
natural
reflect
deferred
##0
although
that's
significantly
accounts
fees
board
companyâ
kind
reduce
position
ratings
actual
buy
security
impairment
against
using
##m
right
reduction
analyst
2015
did
provides
2013
2
system
ebitda
health
pay
administrative
2008
resulting
2014
respect
taxes
contracts
paid
different
control
2016
process
mentioned
meet
software
multiple
regulations
facilities
low
similar
acquisitions
major
quality
we've
government
funds
products,
among
benefits
3
agreements
private
flows
obligations
1,
company,
discussed
laws
local
quarterly
estate
core
supply
them
materially
base
greater
businesses
remain
own
point
2007
capacity
making
claims
need
bit
reduced
around
executive
focus
amortization
transactions
2017
trade
clients
##1
,
historical
fixed
chief
receive
reporting
negative
applicable
july
recognized
points
gains
##c
experience
t
whether
looking
##2
access
##l
lot
page
views
gain
transaction
across
corporation
2006
covered
direct
fund
securities,
2005
primary
cause
opportunities
inc.,
rights
plans
october
attributable
improvement
improved
operations,
so,
assumptions
charges
substantial
regulated
early
work
april
long
must
unit
proceeds
##3
store
particular
employees
continues
addition
connection
approval
continuing
home
##5
itâ
result,
selling
excluding
care
my
lease
strategy
generated
strategic
##,000
forward
favorable
that,
mix
obtain
relating
expenditures
and,
comparable
construction
activity
model
sheet
costs,
restructuring
resources
timing
announced
properties
held
2004
review
10
network
##er
##o
drug
increasing
described
compliance
policies
completed
know
single
license
contents
dividend
contained
give
##9
2012,
statement
respectively,
wells
reports
life
account
member
##8
##4
internal
2003
premium
previously
affected
events
least
defined
consider
solutions
america
##ly
charge
patients
##6
outside
individual
either
legal
national
llc
plus
free
grow
until
2015,
%
provision
spending
view
2011,
february
beginning
expectations
section
conference
stores
cannot
dividends
2013,
turn
sales,
2014,
excess
improve
10%
2016,
particularly
remaining
2009,
leverage
items
)
approved
##7
diluted
president
disclosure
repurchase
services,
incurred
2010,
expansion
competition
subsidiaries
allowance
medical
time,
case
relevant
trends
programs
depreciation
instruments
want
way
short-term
say
standard
comes
reserve
resulted
set
another
directly
otherwise
independent
disclosures
expects
project
firm
month
##'
few
preferred
impacted
might
thatâ
develop
accordance
expressed
sources
best
basis,
coming
investor
2008,
slightly
extent
opportunity
##i
represents
come
become
patent
actually
ve
##on
got
volumes
no.
j.p.
2017,
largest
2018
ongoing
efforts
domestic
(the
anticipated
party
joint
five
maybe
##g
fda
difficult
environmental
borrowings
believes
fully
four
goodwill
small
analysts
november
offering
remains
personal
phase
days
units
third-party
entered
2000
client
2002
additionally,
hold
markets,
provisions
seeing
distributed
professional
to,
unable
consistent
failure
august
brand
industrial
typically
needs
proprietary
don't
combined
substantially
owned
finance
europe
advertising
##p
perform
generate
profitability
5
critical
2007,
differ
funding
initial
help
competitors
written
world
lines
top
reflects
fee
reserves
affiliates
me
revolving
analyst's
declined
providing
##’s
class
seen
employee
projects
stocks
litigation
requires
factors,
intended
growing
american
forecast
sufficient
measures
assets,
herein
yield
policy
technologies
majority
2006,
event
experienced
already
aggregate
directors
lead
years,
investing
previous
holding
off
office
relatively
outlook
discount
record
located
maintenance
focused
said
options
drive
prepared
determined
things
exposure
open
manage
european
intellectual
option
environment
4
##b
expand
deposits
success
##es
##al
possible
complete
achieve
quarters
areas
recently
update
(1)
orders
treatment
recommendations
probably
highly
issue
##k
materials
standards
despite
fuel
longer
30
leading
flat
parties
filed
throughout
2005,
vice
seek
operational
pension
20
non-gaap
[data\utable\uremoved]
move
incremental
start
savings
healthcare
having
co.
unless
negatively
growth,
intangible
commission
applications
contractual
combination
purchased
market,
2001
rbc
volatility
except
actions
components
day
circumstances
pursuant
iâ
represent
considered
people
broad
issues
gaap
established
anticipate
doing
underlying
dollar
place
registered
totaled
deposit
secured
ownership
sector
availability
taking
sort
pretty
solid
protection
couple
carrying
put
residential
deutsche
subsidiary
##ng
short
recovery
decision
delivery
digital
2004,
##h
operate
great
100
close
determine
factor
expenses,
application
enterprise
adjustments
payable
example,
necessary
incur
final
here
john
presented
returns
successful
15
20%
times
managed
strength
50
safety
effects
s&p
area
talk
sg&a
us,
team
well,
consensus
8
rates,
again
report,
grew
fargo
reflected
add
partners
year-over-year
suisse
customers,
organic
book
relationships
roughly
indicated
building
hong
personnel
largely
big
appropriate
assurance
income,
course
pressure
you're
issuance
2003,
accounted
6
5%
refer
trial
mr.
responsible
minimum
purposes
limit
release
persons
variety
canada
wireless
reflecting
2018,
generation
today
settlement
i'm
yes,
larger
trust
infrastructure
beyond
(â
realized
initiatives
electric
1%
successfully
design
internet
receivable
opinions
7
vs.
segments
(2)
measure
pipeline
derivative
drilling
content
communications
upside
revenues,
near
regulation
source:
fluctuations
billion,
am
comply
designed
specialty
law
officer
progress
is,
conduct
2002,
water
revenue,
developed
acquire
(including
processing
every
ll
taken
plant
commitments
mobile
david
makes
type
allow
arrangements
along
months,
saw
countries
address
compete
closing
positions
trend
component
purchases
10-k
thanks
we'll
division
media
platform
test
raw
integration
asia
japan
money
shareholders
attractive
rules
authority
/
added
â·
companies,
forth
(or
source
far
patents
uncertainties
depend
projected
500
sfas
deliver
15%
obviously
improving
south
commodity
operator
moving
leases
improvements
m
present
obligation
values
online
build
let
website
types
outperform
food
share,
1999
something
reasonable
earlier
management's
adoption
interests
invest
evaluate
##000
dependent
rated
card
deal
special
accrued
obtained
canadian
worldwide
institutional
china
trials
represented
wholesale
convertible
rental
contributed
storage
management,
mean
premiums
you,
certainly
loans,
candidates
principally
michael
ahead
venture
land
getting
action
results,
11
fact
variable
normal
merger
structure
developing
size
effectively
labor
conditions,
side
##-based
balances
adequate
50%
center
launch
restricted
potentially
youâ
banks
systems,
active
contact
earned
restrictions
recognition
mark
manufacturers
derived
nature
agreement,
equal
feel
retain
maintaining
study
integrated
there's
series
regional
his
donâ
information,
accordingly,
cover
discontinued
alternative
category
cs
enter
technical
once
period,
expense,
transportation
completion
entities
declines
authorized
original
uses
method
reductions
done
3%
face
sec
adjustment
company’s
of,
matters
agency
therefore,
patient
(in
(ii)
aware
25
r&d
13
operation
jefferies
run
department
nor
he
##in
pharmaceutical
members
##-
##f
incorporated
comprehensive
kong
relationship
channel
brands
timely
9
stockholders
always
(i)
begin
respective
yet
managementâ
late
traditional
exceed
q1
quite
18
especially
stock,
maturity
providers
talked
entity
person
shift
square
stated
advantage
2%
q4
profits
research,
backlog
underperform
invested
suppliers
name
guarantee
pretax
subsequent
40
medicare
testing
4%
assessment
selling,
accurately
depending
assume
though
12-month
harm
lending
15,
create
guess
underwriting
fail
came
amended
protect
recognize
2001,
ensure
collateral
contain
##ion
now,
provider
electronic
things,
equivalents
contribution
utility
reducing
advanced
often
proposed
o
occur
agencies
emerging
reimbursement
##%,
response
strategies
d
numbers
licensed
group,
geographic
states,
space
q2
managing
representing
solicitation
slide
involve
neutral
again,
known
##ve
comments
approach
published
consists
air
sure
default
taxable
okay,
site
intend
court
means
mainly
1998
questions
pro
covenants
reinsurance
street
borrowing
prevent
receivables
unfavorable
(see
conversion
stock-based
weighted
non-cash
advisory
why
parts
appears
transition
q3
noted
delay
delays
produce
conflict
condensed
##us
planned
goods
incentive
responsibility
6%
keep
together
identified
singapore
##")
calculated
macquarie
##an
york
##able
country
rely
cable
(as
later
termination
60
##”
preparation
licensing
judgment
rather
devices
development,
acquisitions,
vary
historically
requirements,
read
pre-tax
25%
implementation
comprised
decreases
weather
consumers
found
involved
institutions
limited,
exercise
whole
8%
consideration
##-related
14
quantitative
light
began
manufacture
almost
others
region
unsecured
separate
1.5
led
adopted
therefore
raise
summary
j.
statements,
predict
economy
expanded
classified
24
robert
partnership
consent
towards
smaller
utilization
##w
referred
meaningful
specifically
understand
show
trying
paper
2000,
targets
stock's
segment,
##or
pleased
performance,
offers
meeting
7%
coal
##ic
scheduled
specified
weeks
futures
entire
data,
starting
guys
##v
shall
i'll
decisions
##le
qualified
depends
p/e
offerings
changing
uncertainty
remained
estimates,
co.,
weak
identify
performed
efficiency
also,
arising
calendar
##ation
nearly
document
assuming
index
it,
y/y
allows
governmental
transfer
partner
28,
enhance
claim
find
recommended
track
force
activities,
twelve
de
200
30%
pending
sequential
spend
too
shipments
capital,
modest
90
agreed
enable
value,
branch
press
remainder
complex
driving
delivered
report..
registration
contains
numerous
cibc
relates
fall
difference
cap
franchise
california
stronger
unrealized
categories
corresponding
qualitative
inventories
weakness
revised
ii
seasonal
applied
capabilities
equivalent
corporation,
indebtedness
details
consist
controls
jpmorgan
piper
hard
16
west
capex
recommendation
vehicle
closed
##ment
video
##en
according
ratios
wide
procedures
dollars
via
networks
australia
industry,
1.2
suitable
achieved
seeks
computer
centers
serve
##ne
cycle
servicing
execution
prices,
2.5
locations
mean,
solely
developments
affecting
caused
ending
status
29,
produced
clearly
history
investments,
director
future,
apply
llc,
facility,
##00
reasonably
studies
totaling
clear
merchandise
uk
automotive
reach
aircraft
rest
comment
know,
advice
1.1
risks,
thing
consolidation
expanding
commitment
universe
institution
monthly
1.0
assumed
eligible
targeted
employees,
debt,
rose
listed
field
figure
19
offered
conjunction
extended
news
distributions
royalty
tier
rate,
businesses,
licenses
processes
contingent
shown
bring
semiconductor
fasb
planning
scale
daily
web
degree
transmission
hedge
retirement
1997
ago
inability
bill
further,
engineering
stable
rising
rule
issuer
implement
human
statutory
middle
reform
somewhat
color
2,
##co
productivity
shows
steel
comparison
(3)
furthermore,
generating
b
james
##rs
housing
disclosed
said,
today's
committed
yields
express
17
judgments
texas
derivatives
regard
legislation
talking
condition,
holdings
poor's
shareholder
prospects
anything
confidence
maximum
lack
political
sense
),
publication
bank,
goal
comp
(which
21
dealer
aggressive
technology,
1.3
evaluating
consulting
analyst(s)
challenges
file
detailed
12%
week
basic
exploration
necessarily
9%
highest
constitute
program,
hardware
staff
regulations,
holders
bps
practices
latin
realize
community
generic
occupancy
former
one-time
expectation
funded
establish
organization
auto
hedging
william
operates
europe,
discuss
fairly
granted
spread
exhibit
changed
list
ebit
1999,
implied
ultimately
served
finally,
in,
traffic
sequentially
seems
tell
facilities,
sites
presentation
joining
taxes,
acquisition,
main
rent
limitations
increasingly
above,
interim
##ble
detail
u.k.
cash,
collection
a.
discounted
affiliate
manner
capitalized
letters
users
guaranteed
1.4
300
reference
corp.
conducted
execute
##st
rise
distributors
central
utilize
defense
2.0
launched
device
reason
count
objectivity
external
portfolio,
##man
inherent
exclusive
determining
implemented
opinion
##z
attract
price,
selected
concerns
et
placed
toward
crude
##e,
40%
appreciation
replacement
metrics
near-term
travel
chain
administration
raising
allocated
##a,
canada,
monitor
forma
constant
advance
accepted
##ce
unique
created
meaning
jaffray
##te
sets
fleet
11%
code
differences
notice
ask
chairman
equipment,
carry
evaluation
commercialization
##u
australian
effort
follow
accepts
receiving
date,
paul
jurisdictions
100%
##ers
looks
cumulative
acceptable
jurisdiction
purchasing
purpose
acceptance
subordinated
reviewed
fees,
treasury
cases
was,
##5%
pursue
inflation
broader
quick
profitable
momentum
assess
call,
officers
bear
70
her
welcome
temporary
##is
year-end
concerning
collaboration
wanted
damage
profile
peer
engaged
3,
post
non-u.s.
satisfy
property,
request
extensive
buy,
cases,
president,
morning,
##th
question,
methodology
u.s.,
turning
family
useful
adding
industries
today,
80
tools
operated
positioned
bottom
levels,
restaurant
authorities
disease
annualized
officer,
benchmark
publicly
e
minority
buying
governing
entertainment
1998,
seven
participate
(iii)
answer
projections
started
following:
reit
liabilities,
thanks,
22
regions
you've
35
deemed
bmo
outcome
rapid
declining
ultimate
programs,
hotel
1.6
laws,
1.9
drugs
updated
owns
1996
environment,
iii
takes
measured
chase
bad
earning
america,
step
first,
believed
quickly
act,
1.8
thus
excludes
periodic
(a)
31
drivers
consisted
##nt
western
intends
what's
disposal
distribute
##.0
absolute
san
repurchases
accelerated
uncertain
risk,
##el
committee
23
product,
morning
include:
supplies
moreover,
flexibility
insured
lose
question-and-answer
secure
amortized
television
1.7
scott
assumes
mike
allocation
brokerage
awards
recurring
attention
closely
pace
copyright
training
*
relate
commissions
side,
determination
problems
enhanced
technological
raised
situation
losses,
vendors
2.2
challenging
faster
accuracy
accurate
i'd
promotional
methods
volatile
solution
permitted
##mm
ten
play
leasing
indirect
ceo
mexico
2.1
repayment
13%
noninterest
occurred
east
##.com
essentially
certify
pc
traded
understanding
cowen
supplier
include,
safe
fundamental
obtaining
contributions
any,
1)
overall,
signed
models
10-q
pages
issuers
worth
introduced
prime
extend
##ar
manufacturer
requiring
driver
transactions,
presence
objectives
paying
•
try
india
city
objectives,
repurchased
they're
behalf
maintained
filing
lost
conservative
confident
needed
part,
deals
fluctuate
measurement
in-line
cancer
stores,
exceeded
hand
association
thinking
2.3
called
75
s.
be,
peak
met
running
description
impacts
offices
fdic
earnings,
wondering
45
voting
contracts,
tangible
charged
representation
engage
posted
union
whose
enough
bonds
requirement
including,
principles
##ch
##ent
agreements,
session
i,
indicate
##ra
gaming
scope
offshore
behind
48
kingdom
relations
them,
year-to-date
proceedings
chemical
2.4
presents
agent
slow
subscription
all,
southern
monitoring
maturities
indication
terms,
feet
job
27
150
0.5
criteria
conflicts
pacific
c
there,
##q
medicaid
general,
plants
steve
objective
28
fell
smith
accelerate
2)
took
offsetting
opening
cell
head
14%
##ry
26
plans,
grant
##’
year's
view,
filings
penetration
2019
built
3.5
certification
particular,
audit
individuals
parent
capitalization
think,
mid
##re
monetary
budget
27,
title
away
retained
forecasts
w.
reached
hit
goldman
bankruptcy
hospital
legacy
position,
double
affiliated
trades
(loss)
evidence
interest,
lenders
diversified
rig
radio
seeking
n
user
compares
obviously,
brian
visibility
inc
retailers
technologies,
front
mostly
libor
packaging
400
repay
became
1997,
basically
prove
waste
long-lived
off-balance
approvals
relied
c.
homes
cloud
electronics
none
freight
10,
considering
service,
exclude
drop
m.
mutual
1995
participating
recover
assumption
weaker
stage
impaired
calculation
guidance,
assure
for,
thought
achieving
room
mining
participants
12-18
leased
renewal
appreciate
discussions
organizations
solar
plan,
education
forward,
entitled
becomes
introduction
(b)
ways
employment
export
advances
credits
utilities
limits
efficient
system,
ltd
##de
2.6
gives
involves
bookings
spent
warranty
ramp
expenditures,
appear
everyone
yoy
##?
merchant
performing
damages
replace
assigned
manager
##tion
comps
richard
##ive
adjust
calls
robust
commercialize
reconciliation
headcount
gulf
elsewhere
3.0
swap
non-interest
civil
marketable
equities
notes,
enforcement
rapidly
0.2
features
##se
difficulties
55
chart
redemption
therapy
brought
leadership
0.3
terminate
##based
function
reliable
items,
superior
exit
35%
benefited
manufactured
contribute
expectations,
sells
eight
2.7
such,
##ting
circumstances,
mac
slower
marketing,
regulators
consisting
##s)
pressures
(and
65
by,
opened
sum
shipping
highlights
upgrade
immediately
channels
old
directors,
search
permits
perhaps
subsidiaries,
healthy
payroll
utilized
steps
term,
slight
affiliates,
margins,
expiration
strategy,
allowed
participation
estimate,
carriers
producing
bond
structured
tend
released
recipients
2.8
asu
gold
fundamentals
expecting
win
corp.,
sensitive
operators
events,
ffo
ordinary
8,
vehicles
branded
maintains
##d,
amendment
ag
telecommunications
restated
##ty
district
##y,
resolution
[operator
ad
restaurants
resource
impose
receipt
extremely
enrollment
trademarks
16%
0.4
cut
ge
then,
integrate
recipient
9,
##et
process,
advisor
whom
ventures
ag,
penalties
##um
summarizes
retention
reliable,
qualify
jim
underweight
giving
designated
spot
regular
focusing
fewer
accumulated
##ll
0.1
scientific
royalties
ltd.,
charge-offs
oppenheimer
severance
percent,
properties,
ltd.
select
pass
representative
reputation
reasons
subscriber
communication
lowering
##]
comparisons
foreseeable
liquid
comfortable
gap
guarantees
nuclear
deterioration
with,
priced
rigs
permit
49
fy
schedule
lesser
supporting
physical
additions
securities/instruments
letter
nothing
thomas
##8%
control,
acquiring
margin,
electricity
resources,
mature
17%
delivering
say,
share-based
indicative
introduce
##ine
matter
thousand
prohibited
firms
aspects
respond
obligations,
assumptions,
helped
expertise
delaware
tv
choose
250
never
expensive
subscribers
physicians
29
macro
excited
went
18%
quarters,
translation
characteristics
demand,
thereby
credit,
oem
extension
charges,
taiwan
7,
elements
60%
ip
repair
leader
truck
47
##"),
prepayment
36
materials,
construed
exposed
overhead
##”)
r
chris
valued
synergies
broadband
which,
mitigate
46
accompanying
initiated
25,
innovation
dates
warrants
2.9
sustained
moderate
groups
##da
usage
follows:
aerospace
point,
hotels
tom
stay
26,
##na
11,
royal
prospective
unconsolidated
jeff
specifically,
carrier
satellite
car
slowdown
london
abbott
grade
newly
disruption
tenant
##n,
##ã
(up
52
4q
from,
32
80%
annually
this,
follow-up
mentioned,
originally
arrangement
0.6
##ia
one,
effectiveness
duration
2q
hope
efficacy
no,
3.1
florida
marketplace
fact,
to:
merrill
red
##ate
prepaid
##/
indirectly
platforms
##3%
probable
neither
location
herein,
modestly
normalized
involving
milestone
directed
supported
##ge
consistently
thus,
biggest
asc
employed
partners,
3q
4,
12,
therapeutic
subsidiary,
competing
3.2
quality,
including:
interested
telephone
shares,
covering
securitization
discretionary
##0%
hazardous
euro
currencies
allowances
1996,
implementing
stockholder
efficiencies
earn
label
remind
preclinical
acceleration
china,
##os
casualty
broker
tough
andrew
##one
actively
line,
gm
model,
44
payments,
germany
tests
after-tax
on,
oral
attributed
##ts
voice
3.3
investor's
communities
adjusting
(excluding
##);
trends,
overview
moved
##as
fx
ago,
pricing,
past,
reliance
write
##ies
specialized
digit
federal,
severe
million)
not,
clean
##ton
treat
words
named
generally,
wealth
##ity
double-digit
##6%
0.8
agents
##ing,
bringing
interpretation
same-store
metal
modified
discovery
periods,
consecutive
blood
0.7
historically,
possibility
becoming
unidentified
brazil
season
marketed
linked
33
estimates.
forecasted
secondary
expire
coupled
electrical
##up
##9%
ranging
terminated
canaccord
##related
soft
wholly
iv
nice
overweight
fcf
innovative
exceeds
priority
insurance,
individually
4.5
##.5
14,
treated
fcc
pharmaceuticals
##2%
utilizing
server
downside
bp
##ted
chemicals
r.
executed
installed
guidelines
indicates
1q
purposes,
interest-bearing
remediation
##ter
anticipates
:
hospitals
denominated
distributor
change,
programming
northern
lowered
l.
creating
dealers
course,
finished
indirectly,
holder
vendor
##ex
household
delayed
managers
reviews
policies,
solutions,
borrowers
contributing
game
3.4
valuations
citigroup
cost,
trademark
70%
peers
##1,
framework
restrict
non-recurring
broadcast
engine
usually
entry
followed
fhlb
1a.
unchanged
##m,
influence
(4)
definitions
ever
closer
non
independently
##r,
seasonality
initially
preceding
regardless
nonperforming
entering
production,
pick
countries,
compare
ladies
peter
beat
##age
instrument
goes
disruptions
##4%
5.0
attempt
4.0
##it
internally
relation
full-year
sharing
13,
student
q
apparel
supplemental
salaries
rights,
intel
ground
kevin
units,
request.
multiples
##x,
34
increase,
tons
claims,
amendments
3.6
bob
live
funds,
infringement
case,
analysis,
composition
clients,
others,
hi,
##,000,
p.
segments,
problem
floor
thereâ
0.9
johnson
suggests
latest
perspective
##7%
membership
portfolios
divided
circulation
population
annuity
challenge
downturn
wind
submitted
summer
90%
benefits,
personnel,
excluded
impacting
dan
reiterate
expected,
let's
borrower
optimistic
marine
sustainable
liquidity,
copper
banking,
showed
##12
activity,
##10
firm's
targeting
##son
implies
medium
sensitivity
heavy
practice
may,
discounts
bulk
below,
##ey
block
role
cautious
difficulty
53
##ta
physician
flow,
concern
enables
ship
inc,
120
enacted
showing
indications
todayâ
##j
available,
candidate
social
serves
minus
master
imposed
##1%
military
flows,
boston
up,
3.7
16,
serving
projects,
investment,
heavily
changes,
eastern
passed
tenants
compensation,
4.1
options,
steady
declared
owners
regularly
mass
(a
wholly-owned
candidates,
warehouse
carefully
commercially
adequacy
falls
ford
adequately
holiday
fiber
proved
typical
follows
3.8
formed
3)
epa
e.
costly
have,
##est
##.2
19%
0.02
marks
##ke
professionals
right,
recall
consumption
adds
exactly
second,
itself
suspended
cyclical
petroleum
embedded
approximate
bearing
5,
mortgages
controlled
circuit
law,
establishing
22%
evaluated
allowing
split
assist
capture
suggest
occurrence
origination
disposition
acts
nyse
likelihood
box
guess,
##.1
consequently,
calculate
fin
4.3
holds
demonstrated
##ss
guided
officers,
perspective,
investigation
arise
reportable
display
applications,
york,
wall
shopping
design,
##.3
undertake
example
21%
excellent
sun
day,
guide
charter
elect
##nce
didn't
age
600
refinance
m&a
0.01
teams
theyâ
lives
##year
holdings,
d.
award
reports,
importantly,
longer-term
optical
ready
breach
38
##.8
##.4
at&t
##sa
heart
associates
pool
demonstrate
##ant
happy
cfa
mm
capability
convert
roe
advisors
adopt
definition
roll
true
everything
prescription
closure
signs
yeah,
or,
sale,
##la
copy
shipment
microsoft
five-year
barney
##.7
##.6
##es,
weight
##11
x
cms
intent
unaudited
exception
achievement
simply
##sh
sustain
conclude
eu
bid
39
here,
logistics
outsourcing
speak
three-month
stars
residual
experience,
18,
outcomes
distribution,
concentration
financial,
saying
diagnostic
authorization
foot
1995,
spreads
20,
17,
subsequently
initiative
tables
level,
par
university
grown
g&a
periodically
impairments
top-line
emissions
auction
aggressively
##ie
analog
37
chinese
warrant
75%
announcement
b.
ubs
##id
base,
##.9
left
encouraged
absence
bigger
transaction,
suffer
check
initiatives,
##ary
constitutes
intangibles
24,
municipal
networking
converted
g
4.4
documents
lowest
expenditure
##net
refinancing
modelware
analysts'
terminal
51
sprint
investors,
risk-adjusted
3.9
team's)
non-performing
downward
incentives
risk-based
telecom
raymond
(e.g.,
goals
installation
consequences
products;
competitors,
accrual
impair
fast
mine
42
manufacturing,
green
software,
helps
functions
stations
mix,
dedicated
analytical
opportunities,
instead
points,
permanent
soon
earlier,
year-ago
corporations
perceived
hear
independent,
##ro
##to
facts
unexpected
areas,
22,
agee
amounted
instruments,
sometimes
parties,
eliminate
(i.e.,
pt
however
v
nasdaq
1994
names
strengthening
4.6
transferred
cross
communications,
concludes
visit
gave
owner
harbor
borrow
plc
influenced
forms
shipped
[ph]
push
legislative
54
[indiscernible]
joe
slowing
fas
cents
fit
##0,
unanticipated
applying
2019,
elected
accept
tim
wood
85
##t,
currently,
staffing
##out
4.2
accounts,
sell,
chip
putting
21,
frequency
diverse
collect
##ck
computing
frequently
needs,
moody's
preparing
##,"
unpaid
disclose
##me
privacy
steven
upper
partnerships
deposits,
##2,
element
version
(dollars
film
context
poor
imaging
very,
(iv)
positively
sole
partly
4.8
accretion
beverage
"
57
dose
(such
dilution
maximize
borrowed
unknown
customary
criminal
trading,
volume,
selection
immediate
unauthorized
dodd-frank
43
deployment
promotion
estimating
indicators
·.
competitor
##ating
varying
##o,
japanese
##gen
carried
swaps
accident
evolving
speed
charles
##at
stability
out,
blair
ferc
ed
pharmacy
##tic
seem
sheet,
dynamics
non-investment
assessing
ones
6,
##il
renew
rules,
willing
beneficial
##ness
standards,
considers
drove
msci
23,
smart
accretive
highlight
preliminary
millions,
worse
##50
korea
350
conducting
japan,
el
concerned
gas,
catastrophe
assessments
billing
inclusion
suntrust
23%
doubtful
indicator
workforce
favorably
spring
5.5
supplement
commentary
classification
##).
64
story
mid-
mortgage-backed
laboratory
interesting
daniel
##30
white
st.
placement
56
extent,
revisions
inc..
games
possibly
whatâ
cards
0.03
rail
##and
legal,
59
helping
unusual
capacity,
op
banks,
tobacco
agricultural
extraordinary
haven't
##3,
can't
reverse
leveraging
station
competition,
months..
125
updates
decide
deep
forecasting
pm
shared
minimize
##ous
facilitate
inconsistent
causing
heard
noncontrolling
bank's
verizon
contracted
vertical
median
surgical
uncertainties,
2.
feature
##(
pursuing
happen
58
##cal
quantities
tied
0
highlighted
black
hedges
players
concluded
financing,
piece
separation
19,
strengthen
acting
matthew
consult
covers
territory
touch
definitely
americas
security,
continuous
certificate
easy
input
profitability,
spectrum
micro
##com
continually
handling
##ma
coast
10-k,
cellular
ratio,
joseph
indenture
six-month
(c)
##ir
commenced
eric
##c,
arrangements,
##line
negotiated
floating
energy,
print
limiting
ebitda,
international,
barrels
knowledge
approval,
4.9
24%
debentures
eps,
0.05
winter
modeling
##ated
##ps
suite
na
idea
inventory,
s.a.
4.7
doesn't
buyback
clearing
lien
executing
only,
depository
governance
refining
generates
originated
california,
co
q/q
note:
reliability
drill
broker-dealer
link
##ee
taxation
sports
headquarters
nine-month
##4,
shelf
comparing
##ol
convenience
rolling
litigation,
sign
readers
hours
wins
prohibits
automobile
falling
belief
800
climate
certificates
stephen
mexico,
estimates..
road
n.
41
62
agree
avoid
extra
thoughts
##ner
dcf
66
dry
postretirement
##pro
5.1
fire
stages
scenario
setting
biotechnology
##*
phone
capitalize
deliveries
5.2
ii,
lines,
stop
efforts,
unlikely
minimal
pharma
collaborative
68
renewed
(operator
5.3
works
ton
collected
laboratories
figures
aftermarket
tracking
producers
proportion
surface
magnitude
(usa)
ourselves
george
lawsuits
67
range,
length
equity,
integrating
area,
lender
vessels
engagement
controlling
##ff
receives
hiring
host
otherwise,
bureau
prohibit
issuing
opinion,
partial
##do
tool
blue
hereby
disclosures,
gary
actuarial
counterparties
providers,
reserves,
alliance
custom
##ling
gets
suisse's
direction
patterns
looked
readily
river
e-commerce
##way
decided
advised
footprint
use,
zealand
creation
strong,
##bn
portions
cisco
emphasis
##5,
worked
##--
transport
matt
obligated
##pa
renewable
reversal
boost
rating,
characterized
break
overweight,
reminder,
ex
cutting
dynamic
enhancements
load
##land
dr.
strategies,
experiencing
are,
compelling
ltd,
repayments
corp
state,
sections
ken
##9,
manufactures
skilled
millions
mail
expires
upcoming
hand,
refers
macroeconomic
##nd
sourced
publishing
increases,
incorporate
volumes,
advantages
separately
dividends,
repaid
proven
remarks
rich
rank
you'll
##day
##on,
recoveries
##the
facing
divestiture
basel
45%
recommend
apple
park
republic
relief
miles
gentlemen,
##ley
opposed
favor
p
trials,
prior-year
australia,
surplus
##l,
##ard
turnaround
liable
700
##8,
windows
casino
washington
##he
interest-earning
fashion
structural
derive
distinct
offering,
fresh
(price
la
presently
buyers
package
exceeding
63
greg
addresses
usa
correct
acres
inherently
accelerating
entirely
produces
way,
1.
##ha
flexible
horizon
alternatives
ib
everybody
nda
bb&t
vote
loss,
nr
path
material,
serious
ideas
jp
issues,
metric
hp
extinguishment
(for
jason
5.4
mw
assign
##ning
huge
begun
congress
sold,
5.6
collaborators
available-for-sale
devices,
easier
sophisticated
considerable
ben
keeping
reorganization
million),
pcs
exposures
else
##7,
super
malaysia
living
##ian
brands,
arm
upfront
settled
appropriate,
##er,
[
6.5
awarded
properly
elimination
(us
panel
shale
26%
cycles
bonus
realization
memory
three-year
functional
economies
##ver
star
##ide
91
exchanges
concentrated
surrounding
27%
modification
gone
cuts
ends
retaining
tissue
spending,
warner
–
remember
130
shareholders'
branches
bar
promote
collateralized
(vs.
zero
proceed
illinois
dominion
revise
hd
prevailing
match
normally
trailing
inputs
tender
61
contractors
industries,
ny
movement
financed
severity
election
cc
joined
pet
platform,
finding
7.5
collections
##20
release,
desktop
database
sub
releases
month,
settlements
hi
ibm
regards
##rt
110
proxy
thesis
corporation's
optimize
suppliers,
interruption
sounds
occur,
1a
accruals
offerings,
assistance
indebtedness,
enforce
##am
##ay
ore
impressive
asked
##va
procurement
dc
noi
5.8
jobs
asbestos
i've
liability,
customer,
forced
removed
occurring
liquidation
lots
vs
##ad
but,
86
consultants
capable
6.0
oracle
students
depreciation,
agencies,
topic
amount,
##ure
payout
gene
28%
laser
certifies
maturing
gaining
exist
##ld
hot
debit
5.7
martin
##ms
modify
averaged
import
stress
variations
gathering
reinvestment
tax,
statistical
insurers
motion
structure,
lastly,
formal
##",
##ze
functionality
authorised
foods
older
contingencies
##ding
0.04
sea
cfo
disciplined
fis
encourage
supports
##i,
records
widely
explanation
iron
network,
ohio
cease
grants
techniques
hold,
actions,
comparative
##ys
##6,
note,
72
quoted
digits
automation
indemnification
representations
compound
violations
assessed
##rd
reasons,
whereby
chairman,
expose
demands
tremendous
virtually
she
jeffrey
animal
h.
##za
##ber
define
headquartered
maker
##bps
king
##mer
1,000
bloomberg
(with
jack
##fa
wireline
buckingham
modifications
universal
##back
##ed,
listing
curve
branch,
vision
meaningfully
bell
mind
79
180
82
finally
economy,
wafer
associates,
county
commodities
advertising,
craig
commerce
returned
bases
sources,
methodologies
irs
replaced
end,
diesel
representatives
•the
##ized
dealing
##ors
intense
ranges
contract,
fifth
submit
down,
fill
institutions,
upgrades
volatility,
communicated
headwinds
dissemination
aluminum
proposals
completely
##si
recovered
basin
confidential
ca
outlined
securing
identifying
turnover
economic,
33%
virginia
amortization,
leads
patents,
choice
formula
school
voluntary
covenant
correspond
##ns
references
deploy
sachs
completing
analyze
bridge
switching
ms
heading
##ier
high-end
executives
decision..
province
reviewing
governments
reduces
occurs
10.0
write-off
##op
dave
signal
practices,
leveraged
eliminated
errors
nonaccrual
##point
reaching
workers
construction,
tech
foundation
dell
describes
drag
exchange,
contrary
calling
disrupt
currency,
emea
complexity
controls,
##ti
defend
complementary
equally
asia,
motor
google
##ization
wachovia
##ue
##cs
6.3
ic
catalyst
conventional
sourcing
approve
starts
networks,
movements
l
classes
leases,
collective
array
policy,
drives
y
6.1
71
faces
(from
mg
focuses
rents
lag
0%
body
6.2
unused
metals
fines
appeal
engineered
curious
alex
69
glass
men
qualifying
?
usd
##der
hedged
f
issue,
merger,
##red
discrete
insight
world,
ec
interactive
vesting
carbon
thousands):
we,
counterparty
barclays
war
satisfaction
redeem
140
simple
buildings
oversight
viewed
lt
management’s
patrick
violation
enabling
christopher
transformation
mill
caution
historic
email
informational
strongest
launches
van
happening
repeat
buyer
clearance
t.
95
##ance
identifiable
project,
milestones
vessel
similarly
happened
##are
learning
appropriately
acute
intercompany
outlook,
firm,
universe,
arpu
amended,
accounting,
supervisory
160
chance
shorter
subjective
loan,
ipo
economics
10-q,
midpoint
(we
suspension
##ca
writing
restrictive
cd
unrecognized
ahead,
las
rebound
dated
u
measures,
##use
shortfall
assembly
dilutive
##ler
76
decreasing
0.10
mar
before,
globally
survey
recording
pennsylvania
eventually
handle
mixed
projection
##ba
value-added
negotiations
desire
5.9
switch
hurricane
target,
sound
traction
automated
competes
hire
lee
tight
tested
turns
audio
es
enterprises
corn
##less
positioning
retailer
##ls
bought
terrorist
house
tailored
centers,
##cy
boeing
simultaneously
fraud
##no
##tar
pain
outflows
decline,
non-operating
89
times,
initiate
stream
transfers
watch
sectors
british
enhancing
statutes
residents
balanced
upward
place,
frankfurt
exists
consolidate
##)..
saudi
bancorp
divert
hurt
printed
containing
ir
doubt
negotiate
##-2
aum
moves
machine
al
forest
cells
percentages
producer
insufficient
ratings,
satisfied
questions,
frank
africa
yearâ
oil,
##/a
examination
##-in
1994,
infrastructure,
##fe
creates
emc
10-k.
prudent
##om
establishes
foregoing
asian
stringent
en
hearing
pe
music
receivable,
handset
distance
valley
wage
##ur
expensed
merchandising
probability
division,
pound
nasd
32%
associate
disney
##ds
settle
jv
draw
visa
robinson
equivalents,
salary
fluid
advisers
injury
puerto
##ally
dramatically
cost-effective
fine
places
edge
rmb
customers'
similarly,
ps
differing
brief
leave
34%
space,
completeness
boe
latter
pnc
78
6.6
issuances
processes,
6.4
divisions
(net
eagle
8.5
combinations
hybrid
silicon
nu
score
churn
stent
g.
mandatory
##‑
52-week
manufacturers,
intention
affordable
29%
guaranty
summarized
components,
asp
entities,
author
genuity
inside
chronic
employ
expansion,
factorsâ
determines
fsa
letâ
headwind
segments:
”
shareholders,
flash
outdoor
pa
(%)
non-core
false
merck
##gh
##ell
don
science
low-
74
investigations
ma
awareness
removal
##lo
diversification
walk
cat
oems
jersey
65%
output
calculating
breakdown
failures
other-than-temporary
rob
gained
##ice
fitch
club
compression
stocks,
borrowings,
##ft
submission
6.8
900
organized
##per
importance
exciting
didnâ
vast
do,
##cc
concept
77
73
e&p
##care
threshold
payors
amd
##ko
mexican
proper
cancellation
##bs
world's
plays
del
somewhere
felt
##io
essential
image
sequentially,
mil
##/share
failed
##15
jpmsal
88
93
sciences
##(s)
thomson
"wholesale
6.7
accessories
##01
meetings
inflows
finance,
lift
incorporation
websites
bay
thereof
surprised
recommendations,
;
(n
prudential
content,
we'd
pattern
argus
lng
exemption
##ni
100,000
##ak
sharp
adviser
strongly
mention
finra
won't
rollout
quarter's
georgia
dental
(down
87
acreage
##ip
wyeth
valuable
##im
(5)
stand
addressing
connected
orders,
##b,
start-up
##tor
compounds
wouldn't
develop,
columbia
refund
peg
premier
matters,
discretion
analytics
450
broadly
nm
n.a.,
frame
31%
ce
man
recession
warranties
jpmsi
announcements
predominantly
affiliate(s)
withdrawal
share)
42%
analyses
96
rock
##-1
insurer
83
unemployment
inspection
##ki
overseas
rick
penalties,
requested
situations
eur
id
variability
indonesia
varies
customersâ
picture
straight-line
aig
sarbanes-oxley
respectively
licensees
doug
high-quality
yield)
enabled
7.0
55%
encounter
allocate
shifting
acted
wait
texas,
recently,
efficiently
84
about,
feed
care,
downgrade
fails
barrel
interpretations
ev/ebitda
mechanism
sector,
region,
days,
stake
##”),
complement
ups
aid
##our
impact,
support,
feedback
beneficiary
jonathan
##ya
business;
hey,
weakening
player
silver
variance
participant
printing
ethanol
##ri
##ut
operations;
##g,
diagnostics
services;
liquids
1993
memorandum
non-accrual
novel
patients,
revolver
electronically
obsolete
##ly,
airline
resolve
99
missed
factory
risks:
returns,
##ac
encouraging
iphone
counsel
france
enhancement
remarks,
utilizes
originations
board,
seasonally
midstream
will,
kingdom,
defer
requests
engines
##ite
##p,
2.5%
unforeseen
statistics
as,
educational
##6.
##ka
aviation
q4,
team,
article
##-to-
jay
##ers,
pharmaceuticals,
capabilities,
supervision
##ny
processed
street,
81
reclassified
##ga
exempt
quantify
##be
newer
ryan
(p
cyber
dow
sg
narrow
wishing
##ec
dropped
collectively
opex
redistributed
employer
cagr
affects
divestitures
deepwater
declare
migration
aa
7.1
website,
junior
ease
92
36%
38%
inception
paragraph
applies
drilled
optimization
believe,
farm
exclusivity
organizational
pfizer
mae
identification
lists
wal-mart
pull
counter
estate,
##quarter
bone
k
lab
shifts
manner,
been,
prepare
##her
net,
##field
alone
port
coverage,
domain
dispositions
catalysts
atm
easily
structures
write-down
98
www.
mark-to-market
whereas
other,
checks
testing,
not-rated
##ase
mission
##wa
##):
multi-year
transmitted
lifo
##go
arrive
disputes
cautionary
safety,
limitation
oncology
##off
absorb
f.
carryforwards
ancillary
sheets
storage,
8.0
ko
covenants,
delta
stockholders'
85%
sales)
(expense)
7.3
(d
center,
million;
breadth
edward
valuation,
gains,
coffee
leaving
deem
designs
w
beneficially
categories,
one-
announce
6.9
speculative
automatically
privately
unregistered
elevated
weekly
alleged
##zing
provided,
delinquency
brazil,
conform
stearns
pulp
variables
merits
##king
perception
keybanc
59.
nc
j
##tt
##ib
revpar
lake
94
vp
reiterated
##09
processing,
gasoline
receipts
(new
rf
clients"
##99
whatever
61.
##7.
##ial
definitive
sterne,
comcast
discover
bargaining
protein
vaccine
assurances
complying
sam
constraints
##k,
nav
relationships,
conclusion
distributes
##40
interruptions
year-over-year,
manages
disseminated
regulation,
?the
yes
of:
tower
shop
commonly
revision
##we
0.06
roic
foreclosure
commitments,
1.5%
ruling
proposal
q1,
generation,
turn,
unrelated
tends
hopefully
extreme
sellers
co.'s
“
##hi
mis
##ow
ne
prolonged
founded
beta
slowed
v.
secondly,
brand,
##mo
caption
##kin
remove
initiation
temporarily
themselves
refinery
eea
mbs
dependence
prepayments
write-downs
(d)
spin-off
##gan
imposition
stabilize
41%
substances
anticipation
##ore
maintenance,
nursing
greatest
furniture
37%
nextel
discontinue
composite
##med
ron
##zed
connectivity
continuation
er
examples
##ax
##bi
substitute
ngl
institute
fannie
cb
secret
more,
leaders
750
jump
backed
##ap
integrity
bc
shape
cardiovascular
secular
(indiscernible)
benefiting
edison
minor
residents:
h
7.2
fulfillment
interstate
##s.
annum
commission,
7.8
breaches
st
deployed
##ware
##/d
##ot
owing
havenâ
ticket
financials
subjects
recognizing
4)
surprise
##by
train
##c)
broadcasting
menu
depressed
forecast,
billings
group's
internationally
##22
cp
charge,
clearly,
##ser
challenged
est
##45
##13
strike
permission
meets
apparent
notional
flu
publish
extending
1.00
(h
##mi
supplementary
##pe
pre
carolina
homebuilding
golf
seller
begins
inhibitor
locations,
##a-
7.6
selective
lawsuit
q2,
citi
(inaudible)
mergers
amend
##a)
##\u
evaluates
replay
proceeding
prefer
erosion
brad
grand
con
passenger
recoverable
compensate
category,
7.4
non-us
mechanical
amgen
preference
midwest
threat
vacation
cars
alter
previously,
proposition
(all
eye
aside
dramatic
stockholders,
##ins
goodwill,
williams
(europe)
63.
introductions
brokers
##25
contingency
defaults
qualification
matures
ranking
introducing
remote
total,
therapies
fulfill
##ging
throughput
audits
formulation
os
exclusively
vulnerable
analysts,
traditionally
ops
establishment
7.7
evaluations
infringe
ice
liberty
gdp
garden
footage
whenever
##ons
(r
impede
documentation
distributors,
power,
adam
##led
hub
wire
12-
'
charts
##ability
deficit
##all
week,
todd
southeast
measuring
43%
regulate
##ger
leach,
jon
##tech
unit,
mississippi
two,
redevelopment
##02
?.
administered
pipelines
germany,
##ct
talent
reuters
footwear
aforementioned
creative
outstanding,
appendix
97
md
##und
##rs,
q3,
one-year
##75
drawn
dollars,
##60
(approximately
advertisers
##ix
marked
perpetual
##fs
##19
44%
absolutely
mills
whatsoever
8.3
suitability
##sion
cold
seismic
10%,
ocean
##bank
continuously
moment
##share
event,
60.
purchaser
differentiated
prevention
disconnect
months;
9.5
170
##-e
th
duty
pipeline,
german
expired
antibody
books
align
acquisition-related
gaap,
imply
full-time
anthony
##17
cy
calculations
minutes
dubai
(212)
##-o
softness
##m)
resale
##ron
##tm
resort
in-house
(e
connect
averages
##han
suspect
issued,
gen
apartment
average,
booked
certified
larry
costs;
plastic
otc
balances,
blended
(4
##ory
##d)
64.
ts
##n)
measurements
##s;
##90
dram
adapt
neutral,
jan
strategically
option,
legislation,
involvement
addressed
ti
loyalty
gs
##ja
hiv
engaging
1,4
sponsored
jones
used,
shortages
appraisal
bir
securities-related
commence
contractor
cr
leasehold
preferences
##zi
nevada
##-3
lehman
duke
pd
2020
cooper
49%
metropolitan
size,
alliances
ads
format
immune
##8.
organizations,
billed
5%,
warranty,
confidentiality
##ks
seoul
crm
1,3
miss
frequent
beauty
ss
eitf
emission
prospects,
stabilized
machines
##000,
india,
##500
cardiac
##bo
attempts
##ten
kong:
necessary,
great,
combine
8.1
furnished
mi
promotions
exact
##que
unlike
te
trucks
valid
mall
stabilization
susceptible
virtual
competitive,
returning
owning
damages,
franchisees
mountain
anti-
ct
pays
sure,
##?.
66.
9.0
stands
nonrecurring
##-10
var
?a
pg
yr/yr
ball
afternoon
##dy
thermal
ab
##.com,
precision
corporationâ
vascular
brings
##tive
7.5%
hosting
folks
sterne
##%)
alpha
indicating
115
commencing
reproduction
secrets
restructured
receivables,
##ho
cre
67.
##bp
versions
company-owned
##gs
reflective
standpoint,
association,
thereto
mo
ace
bullish
dispose
lp
faced
consequential
##14
rev
farmer
##05
standpoint
improvements,
stand-alone
clarity
##che
##9,000
puts
asking
directionally
ebay
prescribed
10,000
waiting
brazilian
equal-weight,
203
discipline
##a.
horizontal
devote
##27
aggregate,
explore
47%
##market
15.0
##ties
maturity,
numbers,
resolved
conversely,
miscellaneous
noted,
diamond
motorola
##-of-
deduction
miller
10-year
graphics
immaterial
skin
##port
chicago
rod
62.
sc
contamination
da
breast
collaborations
visits
successful,
designation
three-
reprinted,
comprise
disappointing
philip
ceo,
recruiting
39%
##to-
officer;
ramping
academic
suggested
##06
exclusion
audited
fda,
##35
##over
7.9
unallocated
entergy
permitting
experiences
delinquencies
referenced
crop
qoq
fox
behavior
0.07
redeemed
12.5
212
clients)
diversion
sand
fluctuation
undue
comparability
turned
methods,
satisfactory
##ker
engineering,
stuff
exercised
formation
disability
approvals,
max
servers
co-managed
culture
okay
##rated
brown
##ek
(m
fabrication
plc,
hereof
##ize
surgery
straight
reason,
priorities
fed
hill
pieces
post-
describe
afternoon,
observed
mt
commented
maryland
women
bed
injection
hyperlinks
happens
yesterday
send
made,
suggesting
##8,000
ar
medtronic
46%
defects
contractually
method,
barriers
jpms
ash
95%
(collectively
procedure
weighted-average
reimbursements
architecture
##h,
scenarios
initiating
if,
popular
(t
##80
packaged
48%
louisiana
economically
prc
chapter
cf
nevertheless,
nt
3d
##4,000
uniform
ultra
sn
attracting
channels,
alerts
eli
##house
atlantic
##ven
sentiment
##hip
niche
pure
jet
175
monitors
orphan
employers
deductions
##zo
md&a
pronouncements
pledged
conservation
emergency
purchase,
3.
3g
intelligence
inadequate
wish
emerge
confirm
front,
redistribution
##70
attacks
##ence
##e)
cogs
68.
contracting
220
nature,
market;
interface
0.15
limitation,
save
pipe
extensions
developers
##-4
##lt
parts,
cycle,
pounds
implications
ta
expressions
register
canâ
interchange
urban
evidenced
depth
manufacture,
florida,
brokered
cdma
standardized
diseases
ph
##ain
rolled
##04
##ig
number,
mgmt
##16
heat
delinquent
diligence
e-
freddie
fab
##1,000
research.
markets;
customized
190
##-owned
speaking
8.6
translate
computed
allocations
0.08
ross
10.5
me,
causes
unamortized
openings
escrow
processor
##ied
3.5%
app
standing
airlines
58.
##/f
downstream
##di
sanctions
ba
keith
sp
agent,
1,5
audience
projecting
##tra
51%
improvement,
renewals
des
thousands
estimation
withholding
8.4
county,
##e.
pilot
review,
accrue
third,
sites,
##so
that:
cra
##end
defending
pertaining
jpm
operator,
half,
strip
appeals
appointed
##ual
instance,
den
bonds,
inflation,
trough
studies,
(5
charge-off
upstream
##yn
(at
adjacent
segment's
8.2
cbs
effected
adjustments,
alan
compensated
attrition
see,
##ded
##lin
reader
government,
65.
taxing
dominant
reset
[over
10-15%
budgets
underground
detect
f200
hydraulic
losing
—
productive
relies
##ful
ak
low-cost
cal
il
crisis
redeemable
##ess
bb
study,
undiscounted
accuracy,
amazon
##rc
##18
placebo
##31
##cap
corrective
55.
tri
trial,
licenses,
upgrading
##03
9.2
500,000
##—
alternate
pump
##6,000
##ort
##tal
##sing
southwest
react
rt
fy12
buybacks
his/her
catalog
hc
launching
discounting
3m
##3,000
##-up
leverage,
flight
depot
recoverability
reproduced
onto
##ana
pickup
logic
reimbursed
prospect
subs
ly
ep
expiring
ac
##65
incorporates
they've
willingness
install
contributor
contemplated
pools
##08
ku
69.
fix
director,
endpoint
##well
douglas
157
bidding
##un
(financial
are:
(asia)
rebates
incurring
4.5%
presentation,
symbol
restructuring,
standby
reporting,
together,
sap
##ab
inter
##tz
bus
assets;
(to
appropriateness
##con
##vo
##down
im
sharply
##low
##ci
comfort
jurisdictions,
preserve
sent
8.8
penny
dollar,
3%,
##fo
hoping
anti
sponsor
##46
non-a
ms.
##ric
attributes
ga
##ert
71.
marc
trademarks,
##38
nationwide
imports
cl
0.20
cancel
##2,000
profit,
coke
judicial
325
##88
installment
##pp
##ul
fixed-rate
404
1934,
##-a
tire
iso
universe.]
automatic
##36
hs
fsp
penalty
##21
procedures,
(rl
##oc
##ville
incorporated,
statement,
##(r)
wages
ni
##7,000
intermediate
uptick
##ran
trans
screen
health,
fy11
unfunded
cvs
##pi
multifamily
reuters,
instances,
xl
customers;
roa
1993,
##ast
janney
##ical
dispute
bankâ
january,
conditions;
fluctuations,
vi
storm
"retail
los
children
ratably
n.a.
##hu
50.0
northeast
sought
accommodate
cn
authority,
##ai
departments
single-digit
"the
listen-only
##ned
tp
howard
considerations
clarify
death
bn
benchmark,
db
succeed
tony
##s-
lodging
metro
channel,
##sm
analyzing
sit
trusts
washington,
bright
550
4%,
k.
implied,
bio
##tan
conclusions
beer
city,
grid
##ox
namely
##32
##5.
arabia
##55
(primarily
landscape
##42
helpful
tra
(v)
biological
coupon
##ans
refined
faith
##ster
positive,
##ud
first-
singapore,
ha
commencement
campaign
bermuda
large,
72.
##berg
##ities
disc
mode
##sta
required,
strengths
mortality
##wood
##ments
for:
reputation,
pivotal
##...
q&a
divested
centralized
months.
sec,
##-5
##yr
owed
##ea
lighting
rs
confirmed
desired
complaint
tumor
standalone
baxter
sr
michigan
tyco
##200
purchases,
webcast
57.
hy
##ris
subscriptions
simon
love
co-
bruce
kanto
##ist
bears
retailers,
asset-backed
indicated,
5-year
noble
56.
142
principle
mp
1-
screening
pv
financings
fines,
work,
##fi
fe
deficiencies
cm
[data\utable\uremoved\u1
worldwide,
##2.
finish
##den
##les
##s'
marriott
notably
##s),
summary,
grocery
plaintiffs
exceptional
art
heightened
fy10
diabetes
##ular
hydro
##64
20.0
explain
##ring
8.7
commercial,
combining
markets'
deal,
cad
##ming
values,
hsbc
young
worst
background
research:
booking
realizable
outpatient
##85
battery
breakeven
merchants
##ish
weaknesses
france,
(“
deferral
analyst,
lu
?we
##r)
ind
round
mobility
families
73.
protecting
layer
massachusetts
##23
p&l
company-specific
assortment
8-k
##67
treating
contraction
deductible
9.1
11.5
(s
gp
(singapore)
theme
6.5%
##mp
phil
multi
treatments
instances
eliminating
##lla
##62
substitution
listings
##34
thin
thirteen
sidoti
excise
liens
stock;
##ving
plant,
##ew
wisconsin
acid
banco
lilly
expect,
8.9
stated,
doesnâ
diversity
approaches
5.5%
##men
won
##week
sab
notable
##66
ranked
lean
hyper
observable
mn
enjoy
internationally,
language
9.3
explained
##des
25.0
labeling
##x)
heating
evolution
tablet
mid-single
scrutiny
therapeutics
conducts
##24
240
196
relocation
discharge
considerably
ray
un
ali
existence
machinery
scrap
2%,
##res
##ei
conformity
engineers
approved,
peers,
##28
##69
adult
diversify
singapore:
74.
##0,000
promulgated
##sis
fields
task
susquehanna
7a.
east,
indemnify
360
outperformance
reserved
has,
gift
houston
650
depletion
##ight
##ep
domestically
hosted
savings,
referring
baker
substance
##ear
##91
rc
##ility
jointly
surcharge
pollution
synthetic
conversations
ships
##ail
judgement
incorporating
disposed
protocol
##75%
assigning
##ou
june,
organization,
tax-exempt
##37
##po
ap
##ther
certainly,
tm
broking
purchasers
vendors,
api
integral
accomplish
expands
recognizes
ppl
repairs
5-
##2)
1,7
##5,000
wave
authorities,
catastrophic
party,
predecessor
evercore
yielding
gotten
9.4
6%,
merged
kim
med
gregory
##0.
die
risk-weighted
##4.
at,
9.7
contrast
expressing
career
baseline
equals
##ane
##su
##water
underway
csfb
him
rico
salaries,
quantity
70.
company(ies)
145
##/0
told
schedules
ours
operation,
##73
real-time
ounces
suspend
deeper
demographic
nielsen
processors
bandwidth
##nes
stanley,
##ght
(continued)
frb
supply,
newspaper
informed
prompt
annuities
fertilizer
watson
aligned
dialysis
retail,
erp
transportation,
##48
applicable,
statementsâ
correlation
proceedings,
##ping
converting
(losses)
flex
sears
bull
##cation
provisions,
oreo
unearned
com
(i.e.
thousands,
anniversary
proud
##od
smartphone
##54
##ries
casual
recycling
homeowners
recruit
2h
##100
finalized
indemnity
9.6
##ably
l.l.c.
status,
powerful
float
judge
anticipating
bundesanstalt
mines
protection,
##mon
spa
strengthened
##ati
ratios,
consolidating
offer,
##vi
identical
stem
assert
ran
threats
spain
segmentâ
9.8
recognition,
predictable
expertise,
effect,
complete,
two-year
spanish
pointed
pin
payables
implying
creek
clo
ethernet
regions,
collins
lumber
weeks,
nick
rates;
coatings
secretary
banc
gradually
dean
resorts
trust,
##92
##ah
ja
77.
##81
cruise
76.
people,
anticipated,
commissions,
hr
improves
##hl
trigger
ns
foodservice
grace
va
distributing
##tel
unsuccessful
##star
road,
preclude
russia
life,
detection
reaction
asia-pacific
135
?2012
81.
molecular
pf
twice
sterling
absorption
0.12
##33
(-
regarded
weather,
restructure
cited
ingredients
##ile
seriously
##yl
positions,
rec
ea
che
outsourced
discussed,
notification
retired
"a
##era
replacing
po
##3)
(collectively,
##é
photo
new,
develops
genzyme
steam
disk
franchises
cubic
recovery,
qui
spin
dosing
]
isn't
expend
consistency
virtue
(on
##of
##sc
evolve
situation,
enrolled
high-
tools,
statute
jmp
short-
winning
multi-
warning
yen
titles
absent
centre
restrictions,
modules
exercises
cargo
undertaken
burns
indicated:
##82
##ney
(malaysia)
##form
bias
environments
aimed
##39
guest
79.
target:
generics
gt
resident
supplies,
##lan
pp
##/e
fedex
developer
82.
india:
oilfield
meanings
targets,
write-offs
53%
sa
8%,
draft
##rate
##25%
category;
105
nim
##07
slides
##.)
terrorism
si
td
progressive
upgraded
stewart
-1
operate,
rating:
(where
se
##.,
12.0
1:
sorry,
m)
words,
pan
aging
instituted
78.
mechanisms
appliance
##ship
qualcomm
##5)
supplied
indeed,
montgomery
everyone,
in-process
2011.
fort
really,
133
hour
differentiate
(b
0.5%
54.
adobe
suit
reits
10.2
##52
timing,
nand
section,
abuse
lo
buys
utilities,
actually,
(except
inventories,
geographies
fo
surety
allstate
52%
##26
luxury
territories
##86
9.9
##ford
stockholdersâ
##view
morris
coca-cola
lengthy
##tr
chips
##o)
characterize
window
negotiating
asset,
("s
impairment,
(income)
minerals
##ene
(ad
doubled
(k
platforms,
triple
##old
wi
1,6
forces
message
biogen
d&a
request..
7%,
ai
conviction
##71
swiss
ef
definitions,
bit,
2012.
pat
henry
opportunistic
imposes
mineral
department,
below:
aspect
##yo
##41
underwriters
##98
##2-
accruing
legally
0.25
disadvantage
##-9
##nm
1,2
##r-
dna
##side
formerly
dac
adopting
cv
viable
needham
cities
container
##van
outlet
sample
thailand
scheme
##xa
undertakes
##nk
reward
1%,
##89
reimburse
##4)
##51
##pt
placing
paint
13.5
frankly
protected
titled
payable,
americas/united
feedback,
simulation
cam
200,000
shifted
synergy
pushed
corp,
notwithstanding
season,
##ium
unresolved
ye
anyone
directive
lae
occ
amounts,
takeover
s.a.,
originate
september,
icd
publicity
21e
two-thirds
discussing
ng
##sco
large-cap
waiver
certainty
good,
kinds
##em
09
multi-family
##n-
rooms
##94
colorado
realignment
225
supreme
eligibility
(other
##@
over-
on-
83.
##ect
films
practicable
##ina
##board
dod
high-speed
warranted
could,
(versus
pr
(j
harris
creditors
##ged
indian
##43
clear,
##s/
wild
corresponds
comm
repricing
feeling
alleging
micron
dennis
(proprietary)
administration,
approach,
230
high,
files
medicine
compensation:
cor
attractive,
securitized
receptor
##-out
stifel
##mic
greatly
december,
developments,
l.p.
ensuring
construct
ceded
self-
##-re
far,
millions)
progression
##ome
exiting
recourse
##ale
dual
marcellus
map
projections,
reductions,
though,
##jo
cds
tariffs
next-generation
registrant
inc.;
commit
3.0%
opportunity,
infringing
##77
truly
10.3
parks
delivers
75.
modeled
ot
fs
geographical
##-7
260
pte
achievements
adjusts
##mn
outperform,
(e)
re-
2.0%
mer
motors
#
comments,
##ru
##wer
nicely
pressures,
parallel
marketplace,
lock
j.p.morgan
corning
##vision
promising
84.
lynch
availability,
100.0
sometime
indiana
vegas
year-on-year
franchised
4.0%
slowly
ya
##r's
march,
##76
scores
10.1
controller
(l
significance
1,8
performance-based
ltd;
80.
streaming
packages
##ral
roche
fat
##sk
copied
##lic
promotion)
swing
chicken
1.25
policyholders
trending
designs,
rural
sba
##ang
asserted
sees
para
math
responsibilities
significantly,
##light
summarize
operationsâ
industrial,
quarter-over-quarter
night
5.0%
##p)
row
security(ies)
##zation
commercializing
college
##x-
risk/reward
inhibit
action,
idaho
lifestyle
fruit
responses
##63
realty
10.7
indefinite
retire
**
sudden
##53
repatriation
##c's
sur
dsl
reasonable,
checking
bac
in-
learn
innovations
trajectory
greenhouse
pushing
deteriorate
##o-
relying
inform
emphasize
sean
carl
transparency
pediatric
123
sky
equates
nominal
validity
remedies
gateway
onshore
resellers
wine
linear
on-going
sovereign
instability
mercury
attribute
sub-
##ative
11.0
fiduciary
##fer
dm
downs
troubled
infusion
return,
tc
sil
##if
##ham
##vir
##mc
concentrations
##wide
food,
drugs,
pop
dvd
consumables
gla
wouldnâ
stemming
citizens
##rm
##84
##68
"re
medi
palm
hired
exp
playing
specifications
plants,
##car
journal
andy
updating
routine
permian
portable
whole,
##can
##level
anywhere
intensive
insights
media,
index,
##ick
timothy
##/c
accordingly
sw
##ime
expert
concessions
emergence
8.5%
0.09
du
runs
(japan)
variances
higher,
biopharmaceutical
organically
financially
##tc
containers
##rin
(pa
wider
pose
08
##72
hughes
exposure,
duties
##3.
rebate
disasters
by:
sdn
lung
##in,
francisco
2,000
disaster
10.6
bur
bylaws
dividing
command
england
optimal
##vis
##ond
funding,
2-
##og
270
##-i
attractiveness
operating,
##rie
mitigated
em
steadily
renal
bryan
attack
s,
##tri
possible,
##-6
dis
210
arizona
sustainability
inline
recruitment
320
employs
admissions
10.8
10.4
edwards
##:0
opinions,
86.
broaden
bs
##ped
notebook
pioneer
##-de
chi
0.30
shell
##rk
women's
87.
103
restoration
ws
##head
##oe
schwab
salt
hospitals,
##sy
mastercard
jo
asps
sb
doses
withdraw
blend
sandler
builds
##cf
##ky
comprising
composed
hawaii
ventures,
customers’
sep
predicted
phases
kansas
ah
join
108
avg
posting
bath
107
1.0%
much,
stack
closings
mitigation
incurrence
blocks
unclear
##ations
ho
##gn
anticipate,
communicate
salomon
sources:
allergan
powered
apart
wedbush
bra
ig
mkt
delay,
policyholder
vo
powder
sizable
semi
##oli
ia
frankly,
alexander
280
protections
timeline
york)
##dis
text
20%,
mal
indefinite-lived
ytd
unpredictable
##8-
##n's
sufficiently
##month
skills
11.2
successor
\u
gi
dp
caps
sti
equal-weight
reality
notified
partner,
finra,
hat
grow,
mu
##49
ceiling
cent
burden
92.
(ce
suffered
sbc
alabama
research)
au
zone
##,0
biotech
santa
fd
guggenheim
195
acquired,
parameters
llc's
95.
li
briefly
z
john,
##pri
##iv
defendants
##&
vehicles,
molecule
##ram
buffer
accessed
company.
(if
concentrate
(thailand)
##ech
module
qwest
02
##an,
bcf
rewards
creditworthiness
factset
inc.'s
lan
?stock
complex,
enroll
tranche
##,1
om
repurchases,
govern
2:
av
y-o-y
##78
##95
geographically
50,000
cleaning
follow-on
correction
sanford
cancellations
timber
constantly
northwest
##cor
foundry
##56
shut
taxed
ban
rentals
##61
##nn
attached
##29
99.
##rp
compliance,
reinvest
electronics,
nickel
approaching
##ara
collateral,
application,
##lar
abl
april,
ow
labor,
completed,
##ator
single-family
regulations;
##ions
cer
one-third
##t-
phones
payment,
(pro
102
laid
kick
rendered
wil
##,â
grain
disposable
buy:
##bt
jude
africa,
closures
deteriorating
##ub
pressure,
widespread
timeframe
rationalization
tightening
discourage
##vs
benefit,
picked
barry
mellon
fluctuated
wonder
##ini
philosophy
ministry
toxic
##ob
mb
july,
disease,
za
inflationary
##art
meant
(3
ze
route
endo
##59
##my
lc
downturns
##79
tariff
restaurants,
exelon
intermodal
dip
survival
88.
##fc
fixed-
89.
##time
lafferty
preventing
##e-
korea:
##stone
le
seed
consumers,
plasma
frozen
##ace
##ali
fc
93.
yet,
maxim
nyse,
test,
site,
valve
lte
uk,
arbitration
15%,
balance,
force,
automotive,
##ade
expansions
groups,
##f,
ann
(0.
##58
verification
tree
##pan
catch
thermo
argentina
sd
(an
continue,
##44
indices
realizing
frac
oe
##87
##ion,
##sâ
##pd
d.c.
su
ft
holt
4.
intrinsic
bt
(1.
close,
11.3
bids
bonuses
sponsors
inquiries
az
render
pre-
permanently
wa
examinations
anadarko
restatement
nitrogen
softer
stick
australia:
dividend,
currencies,
reversed
wells,
timeliness
(co
assignment
license,
•a
netflix
(re
under-
2h0
multiple,
brothers
gradual
day-to-day
(after
difficult,
non-controlling
neuro
matching
##uc
##ville,
signing
cost-
##-p
dupont
##ari
tap
look,
##driven
53.
evident
spoke
har
severely
kenneth
containment
ds
cast
respiratory
nesbitt
##-specific
efficiency,
(formerly
translated
reading
##l)
(g
merge
backup
54%
##ii
##pr
91.
messaging
##pre
wet
##/200
##wi
two-
refunds
1992
##97
repositioning
pi
hurricanes
displayed
##r.
s&p's
(6
p/e,
trs
novartis
publication,
yield,
federated
mcgraw-hill
consultant
##ple
anchor
##,6
fragmented
mono
fitness
14.5
11.7
signals
nicolaus
pledge
##ock
pb
articles
ger
##ings
delaying
ke
##93
viacom
publications
usual
1933,
tried
philippines
order,
58%
inclusive
computers
(far
predictability
##ame
##-8
exemptions
ser
##bc
94.
requirements;
venture,
dar
##hy
wrong
10.9
sm
mbia
##/m
(w
carries
enters
##,5
country,
##ole
3-year
deceleration
(f
ing
team's
11.1
accessing
##gra
methodologies,
##qui
implant
mild
rmbs
300,000
thereafter
nat
on-site
soup
schools
nb
denoted
single-
access,
##74
propane
burn
##fit
##83
ur
sluggish
renovation
prescriptions
penn
benchmarks
says
reinvested
wafers
time-consuming
sta
lincoln
differential
sara
office,
hospitality
presentations
conversions
reiterating
##g)
aol
##57
undervalued
##tu
uncollectible
9%,
##'s,
marginal
tie
peripheral
oklahoma
displays
fred
receive,
regulating
typically,
closing,
85.
(6)
registrations
months)
##uring
samsung
11.6
railroad
october,
demonstrating
snow
internet,
##cast
captive
inpatient
desirable
c&i
##sl
constrained
2.3%
wasn't
violate
licensee
56%
##li
##6)
yr
##ye
est.
constructive
##zer
studio
27a
um
1st
east)
smooth
judgments,
##1)
comparison,
cfa,
bernstein
##top
ex-
shortly
nutrition
assessment,
tablets
models,
ro
##-off
density
bla
psc
island
##pay
(hong
french
paypal
ei
decent
fastest
ambac
##mber
shortage
ent
travelers
practical
beliefs
year-to-year
off,
##oad
adr
symantec
eliminations
pl
foreclosed
lucent
##,7
transform
alternatively,
strict
##,8
##min
risk)
nov
ian
packaging,
adc
aim
derivatives,
57%
store,
findings
##c.
identity
subprime
111
innovation,
pci
allegations
deficiency
binding
“a
non-re
nationally
ty
toys
##dt
albeit
trustee
rehabilitation
sin
##:1
ghg
tr
bankers
11.4
making,
hartford
franklin
discovered
medicines
history,
payers
feasibility
fpl
adams
1000
pri
nv
wrap
low,
direct,
downtime
cement
tokyo
prepay
##t)
reconciliations
mel
proportionate
divest
##ura
refresh
alcoa
investigational
shareholdersâ
industry's
109
gilead
obligation,
##47
premiums,
aided
extends
##ila
##ori
cit
immuno
##cing
hardware,
tel
client"
##/o
year..
dividends)
settlement,
liquidate
expensing
basis)
##sp
mit
monetize
louis
in-store
cigarette
0.11
##erg
##&a
hal
outsource
unaffiliated
ua
sell:
(expense),
##ski
0.50
mattel
due,
agents,
cautioned
exports
minute
##,2
alaska
weightings
saas
petition
sim
baird
dilute
imperial
ngls
japan:
discontinuation
esp
(based
##ank
##fied
(m)
##ood
fy09
campbell
thinkequity
retrospective
pass-through
benchmark*
glenn
##xis
fundamentally
antitrust
98.
continental
specialist
undeveloped
members,
you'd
##len
courts
ari
environmental,
excessive
bodies
enactment
challenges,
##met
cfo,
##act
navy
mr
donald
##ich
sands
ch
##don
kept
tougher
recall,
"e
fund,
uninsured
style
revs
(c
baby
penetrate
##,”
197
##ria
##/s
lease,
##sen
portfolio:
tu
measure,
delays,
dec
metrics,
##dm
tam
experts
thrift
(7
nova
##hs
year;
123r
eventual
campus
wei
demonstrates
##-t
##ill
topline
differs
tail
queries
flattish
reclassification
productivity,
training,
##ita
96.
flat,
##ste
redemptions
"ac"
gallon
expenses;
top-
sizes
##ack
determinations
impaired,
teens
accomplished
tele
casa
##,3
kong)
modern
3,000
(i
bank’s
non-recourse
attempting
responding
pen
ka
entirety
carriers,
rare
co2
##bb
perfect
dri
beverages
wants
90.
collecting
subcontractors
(12
12.2
11.8
genetic
better,
guarantor
underperforming
horizons
##cia
tour
universe:
defensive
##5-
resin
##mark
(mm)
lcd
incidence
shares;
wastewater
13.0
dd&a
sce
incident
consumer,
official
mcf
leg
russian
jewelry
##a's
(buy)
curtail
##&e
1.6%
teva
##gin
cross-
importantly
np
harmed
poly
2,0
diminish
bundled
ifrs
assured
scale,
arises
costco
sooner
competitors;
presenting
beef
2.4%
potential,
exited
persist
infection
tank
shutdown
101
annually,
comed
ordering
##sive
weighting
gsk
concrete
decommissioning
underwritten
(not
##uri
##lp
##,4
occupied
improper
credits,
temperature
massive
pakistan:
brent
outage
price:
company:
##work
##cin
poised
6-12
deploying
reit,
promissory
hypothetical
contents;
##cho
inconsistencies
##mb
transit
dairy
tre
spine
144
someone
0.40
##fin
plastics
ratings:
hyperlink
multiplying
compliant
##iva
conditional
band
terry
sar
patented
paper,
col
validation
constructed
##xi
##air
mc
chevron
y/y,
taiwan:
fifo
powers
monetization
##lis
##tions
##f)
occurs,
accepting
##cent
6.0%
1,9
##ton,
##eo
harvest
tone
excellence
mh
delivery,
0.13
fraudulent
(u
2.6%
zo
healthcare,
congratulations
planning,
wfsil
af
movie
backlog,
barr
like,
tl
copies
chosen
guiding
petrochemical
cop
abc
specify
##life
##san
justify
fortune
sitting
pty
bat
97.
sy
##i's
bel
##vin
jun
nol
2.7%
fee-based
62%
ae
bloomberg,
dish
(registration
costing
nokia
wp
connections
market-
##lc
outages
hb
340
oper
dr
examine
5,000
reinsurers
end-user
##aa
startup
telephony
roger
(exhibit
merit
clarification
##sch
combat
##rity
guys,
electro
negotiation
impossible
intel's
customer's
strategists
1.4%
unusually
italy
missouri
defines
flagship
##izing
fracturing
attorney
word
"o
company;
12.7
##on-
well-positioned
vie
3.3%
disasters,
quarter-to-quarter
##ics
integration,
default,
##400
##tes
(ex
aca
2.2%
bd
sipc
race
cleanup
12.3
oibda
streams
factored
yahoo!
door
1.7%
transactional
pu
9.5%
remedial
38,
3.8%
fr
e-mail
gases
inspections
(8
pos
##ource
haul
##,9
ra
all-
treatment,
reps
performs
1.3%
shrink
electronically,
accredited
mandated
rx
abs
(o
starbucks
cont
biologics
trip
##-se
##au
requisite
(de
thereof,
ims
sla
fuel,
furnish
serviced
##tex
##-ca
aflac
brett
exceptions
##sure
nf
i.
12%,
tin
3.4%
15.5
practice,
pra
122
streamline
##i)
year)
distortions
("c
systems;
higher-
revenue)
12.1
partnerships,
##9)
##ett
strain
encountered
kong,
sensor
##pon
picking
judgment,
small-
'08
rigorous
infer
insulin
##&l
arms
geo
cpuc
matrix
procure
114
attendance
elaborate
##max
ev/ebitda,
250,000
7.
fan
eg
wynn
saving
1.8%
credited
3.6%
surrender
justice
ralph
2021
##tv
sorry
back,
licensors
exploring
##ji
committee,
##vel
cards,
murphy
12.8
minnesota
aggregated
basket
##-c
(usa),
##tone
towers
11%,
referral
(30
averaging
antibodies
cooling
interests,
allen
30.0
crystal
##group
hey
instructions
vol
ev
moderately
nrg
20,000
convenient
##oma
spike
multiplied
download
##/i
1.2%
11.9
distributions,
resume
kraft
assisted
strength,
boxes
##ren
careful
##of-
solicit
day's
workers'
12.6
##eg
##bly
##sb
pack
jm
competitiveness
ars
chains
liver
transcript
handsets
advise
precise
aw
wacc
parking
optimizing
ecommerce
insider
through,
tar
engagements
companies;
purport
dd
val
'09
lending,
seat
12.4
##eri
rankings
noncash
acknowledge
##stock
intervention
##pc
##ible
guests
roth
drug,
vaccines
codes
advice,
floor,
165
##ele
imported
cheap
ordered
gil
partnership,
gps
degrees
waters
protocols
broad-based
balancing
##eb
##nia
##cha
2012e
##96
anti-kickback
pre-clinical
112
##p.
##wn
noise
semiconductors
adi
wellpoint
fy200
long-term,
analyzed
century
40.0
2010.
pn
log
inhibitors
pad
bofa
syndicate
full-service
venezuela
routinely
tennessee
plenty
5)
##lli
nortel
polymer
##ture
modular
iq
unlimited
marathon
forecasts,
##-me
##sha
ber
coronary
14.0
grades
filings,
gd
overhang
cooperative
slot
argue
##tec
stone
1940
275
wm
reserved.
outperformed
##ves
overnight
##ata
per-share
sugar
3.7%
surveillance
c-
##ere
fuels
factors:
##nic
staff,
##ik
omissions
s-
##-ro
##.â
2.8%
counts
increased,
meanwhile,
ameren
topics
lower-
factoring
dit
13.2
obvious
results;
profits,
damaged
aren't
pbm
oak
apb
sat
co,
##home
ranged
bills
grows
concession
decisions,
sto
error
fixed-price
manager,
patent,
plaza
significant,
voip
155
hinder
msr
granting
amortize
airport
completeness,
##plus
taylor
staples
##ora
csc
ob
motivate
mln
sublease
february,
##une
strive
reg
monitored
marshall
##lay
tan
progressing
landfill
16.5
randy
learned
##ws
##bility
realistic
captured
##0)
deems
ati
0.35
ama
highway
(ac
##val
calls,
weigh
3.2%
sic
stifel,
mann
golden
hands
seek,
transitioning
report:
0.18
17.5
affirmative
##ag
##ica
hei
meeting,
##bed
quartile
allied
trillion
year-to-date,
glen
uc
##ales
expressly
filing,
bl
850
sparc
12.9
sl
##tax
translates
connecticut
companies.
weakened
portfolios,
consummation
differently
selectively
epi
ru
##/t
classify
campaigns
ceased
stat
kar
ethics
##ation,
kelly
functions,
##service
0.14
arch
cho
syn
cons
firms,
sensors
licence
##/g
juniper
400,000
##ens
##t's
nex
redesign
##rb
##vac
medical,
##-li
vital
cigna
##nda
opt
-3
risk-
set-top
data)
augment
132
##ult
mile
##investment
subscribe
2.1%
"important
nap
"accounting
##ez
system:
partnering
well-
oriented
modified,
hall
##ug
##rel
4.3%
##dale
##link
cmbs
wonâ
a&
nonetheless,
aircraft,
broadcom
regulatory,
6.
spe
oct
itt
330
offices,
effects,
black-scholes
rv
61%
##ht
reduction,
recommendation,
chemicals,
##ino
13.3
##d.
##l.
improve,
reservoir
(both
treasurer
bump
pro-forma
kr
households
vest
##ona
cure
effectively,
nols
bakken
arthritis
##-and-
company..
reputational
intensity
price/
##ward
peoples
ultimately,
boat
(kinsho)
council
anderson
comprises
tax)
coach
##0-
##ng,
institution,
13.4
gu
dor
rl
aetna
lap
io
modernization
dial
4.2%
##en,
callable
nike
yesterday,
##ration
5.
navigation
eog
hourly
##e's
tonnage
pmi
exceptions,
physicians,
fa
ounce
political,
63%
total.
•s
prospectus
korea,
possess
stored
2.9%
##.com/
mike,
##aci
eva
guidelines,
laboratories,
##for-
puc
ht
##rit
makers
correspondent
managerial
fi
(no
zi
csx
maximizing
##wo
enforcing
lay
ireland
undercapitalized
##win
dol
attorneys
industry-wide
the.
fisher
goods,
13.1
##nti
##mg
min
##rf
catalysts,
13.7
pru
8.0%
circuits
consuming
four-
response,
prostate
low-end
##y's
lower,
loaded
67%
leisure
pur
efficiencies,
(ba
arr
enc
##tin
incumbent
gar
121
#1
sony
speeds
complicated
##ise
3-
exchangeable
(australia)
##dd
humphrey,
restructurings
stood
2,6
cohort
##tis
positives
apache
154
retains
1b
accumulate
ion
375
ld
profile,
##tors
somebody
afford
##dia
(ca
addressable
##stic
hilton
regain
bristol-myers
ranks
honeywell
listen
aes
hundred
##du
wo
holdings)
differentiation
##yc
30-
ji
growth;
undergoing
159
limitations,
1.1%
##ili
self-insured
tower,
##erm
(al
kb
disclosures:
warehousing
fallen
surge
4.4%
yu
##nu
118
altered
13.6
decrease,
consummated
derives
##cycle
dso
'12
##s"
##ern
fen
ul
appearing
##logy
ml
sfg
deflation
market's
##lu
boards
undertaking
(%
hence,
valued,
specifics
dem
tighter
dining
##-12
##specific
##300
lieu
intuit
##-free
virtualization
cg
2,1
pari
u.
compounded
64%
needed,
foresee
##free
anytime
securitizations
solvency
(li
59%
problems,
pit
382
##ense
jamie
africa:
run-off
pumping
convention
12.5%
##-wa
##y)
neighborhood
bre
05
author(s)
virus
classic
•re
tn
taxpayer
##ju
rule,
recovering
cushion
foregoing,
collectability
trucking
avi
4.6%
symptoms
0.16
1990
gua
depreciated
4.7%
analytic
same,
##v)
##source
remediate
ingredient
fundamentals,
##room
hasn't
nation
company-operated
authoring
mark,
stimulus
enhances
1.9%
cincinnati
imagine
august,
instrumentation
decade
page.
##-in-
installments
high-performance
us;
cart
cloud-based
##mar
first-quarter
##oy
concepts
(un
identifies
manual
pooling
based,
location,
acquirer
##-year
13%,
ted
own,
promoted
wu
account,
recon
zealand:
uncover
4.8%
"se
•our
megawatts
fueled
##arket
mos
shock
gre
placements
mylan
appetite
battle
eb
systemic
apc
markdowns
##ement
promoting
postpaid
tape
affairs
flood
appliances
lakes
cinema
2011e
bea
below)
ame
costs)
3.1%
##ero
triggered
next,
non-agency
(but
click
bolsa,
monsanto
broken
deb
visible
reproduced,
had,
cardinal
staying
cas
0.3%
##8)
##j.
bulletin
customs
phosphate
quota
fourth-quarter
nas
candidate,
users,
106
telecommunication
p&c
sigma
13.8
destination
entity,
##b.
##term
##ssi
msft
res
4.9%
msrs
keegan
##bar
months):
##tre
period-to-period
pepsico
industry;
dec.
neil
104
cancer,
cook
apr
agreement)
anda
small,
##ira
scalable
received,
##sol
arb
##t.
##box
##band
portal
tal
4.1%
uw
justin
ci
madison
davis
##perform
certifications
kohl's
ver
goals,
diminished
execution,
30,000
unre
bo
##ku
fu
##bu
agency,
visual
5.3%
wrote
per-
##w)
pma
##redit
consolidation,
all-in
##ani
##dc
satellites
lin
##hel
bancorp,
three,
sv
departure
noting
intra
510(k)
##hr
##d-
overcome
##dri
varied
refinanced
ax
trained
revenues)
participated
je
achievable
mainframe
stimulate
twelve-month
cla
local,
refine
undistributed
jerry
begin,
mega
[inaudible]
irr
chain,
lifetime
important,
hitting
profitably
##ugh
ina
##vent
overly
stryker
##for
payor
20-
##een
##gar
land,
overlap
thousand,
ram
novo
indeed
generators
http://www.
10.5%
1q11
unfavorably
feels
tactical
cpa
4-
##sti
awards,
##ef
asset/liability
failures,
sustaining
radiation
apparel,
usa,
14.2
carolina,
balloon
concert
monster
regulator
accessible
fluids
watching
##graphy
medication
ipad
devon
4g
apps
enbrel
multinational
##bit
injectable
growth.
retroactive
eds
transplant
gallons
2,7
##tle
ls
depreciate
stabilizing
unwilling
scan
town
fuer
##6-
self
mcdonald's
5.6%
ots
feedstock
128
seemed
front-end
prevail
technical,
nd
firstenergy
attract,
14.3
dot
##enti
ceding
hair
graph
routing
##ua
##risk
always,
reimbursable
##/p
2,2
é
.0
interconnect
humana
unified
description:
3.9%
##expected
unavailable
protective
magazine
earthquake
parcel
mirror
hang
capital;
morgan's
managers,
##nta
1.15
ine
ronald
mid-teens
disruptive
spl
same-
sal
pursuit
inactive
290
viability
earth
trend,
fee,
disproportionate
66%
merger-related
##oi
a-
terminals
aaa
dt
convey
##nar
14.4
spinal
ferr
water,
##ost
guy
resell
(nyse:
dl
f1
aggregating
alberta
subsea
ana
cna
walter
##-driven
remember,
above-
endpoints
effective,
noticed
still,
3.00
deducting
##ust
16.0
tolerance
relations,
310
amends
approves
lend
appointment
(please
wishes
surprising
proactive
exchanged
##ction
4,000
qtr
syndicated
governed
refuse
inventions
lands
glad
3:
municipalities
doe
yields,
matched
code,
personnel;
14%,
##tta
deployments
rata
br
investigators
signature
operators,
##fund
stephens
##ok
ample
english
2023
advancing
guidant
compiled
cycles,
aero
##ong
5.4%
premises
avenue,
soc
insolvency
ticker
0.17
harder
13.9
deck
contest
recreational
debts
boosted
underweight:
niederlassung
una
##l's
expensive,
branch),
cabot
eliminates
##/re
bu
asset-based
downgrades
2022
pulled
commensurate
5.2%
•in
ww
phoenix
2b
ohio,
volatile,
ric
reseller
##us,
illustrates
moodyâ
?in
##elo
##atic
third-quarter
proteins
sponsorship
mol
passive
oc
additionally
158
netapp
millions):
##rl
epo
141
agriculture
toll
aep
..
wheel
ems
kentucky
fusion
##p-
separately,
##/de
fy13
designing
withdrawals
##."
cleared
mv
amit
cme
##nb
14.7
ala
profiles
##ees
meters
sci
recap
downgraded
employee-related
overweight:
bis
roi
non-e
14.6
capitalization,
johannesburg
##/sh
on-line
f5
lor
caterpillar
##gy
november,
tax-
downturn,
citrix
thing,
milk
sop
chuck
##.n
0.6%
clark
indentures
##run
"b
##west
thereafter,
incrementally
extract
##cer
##ano
5.7%
variation
errors,
vested
toy
##lm
morningstar
concerns,
racing
##hor
kitchen
proc
14.1
##ott
(about
##owned
xerox
##-s
adjustable
ven
spite
resi
##ont
##llo
adp
expect,â
hip
tenet
servicer
rat
emphasizes
aaron
originating
ppg
stance
tds
played
##/h
grupo
italy,
30-day
intentions
activation
acquires
(e.g.
instant
07
##olo
##inc
offsets
dealerships
##card
gel
##weight
unrestricted
oâ
combines
##-fi
idle
finanzdienstleistungsaufsicht
142,
(hold)
##eli
devaluation
sleep
fossil
incurred,
5.1%
verified
161
que
dea
company)
performer
##dle
contractors,
naturally
josh
inefficiencies
methodology,
7.0%
##ala
mezzanine
##orn
camp
2,3
fdc
mini
intervals
sher
buy-
outflow
enjoyed
ema
(used
##sf
chg
##nex
architectural
##al,
remodeling
virginia,
believe,â
##/co
1,500
declaration
cy0
##ved
splits
factset,
peri
consultants,
113
##gal
second-quarter
##ition
industrials
(including,
##sed
##nts
(sell)
discussion,
alluded
geopolitical
russia,
jackson
(su
hundreds
consulting,
rather,
6.7%
prospectively
rulemaking
pennsylvania,
celgene
prepared,
friday
148
mro
##outs
prototype
(200
tests,
proportional
hum
data.
obsolescence
06
hu
labs
14.9
##ute
builders
temp
cadence
##b)
premium,
incidents
##-200
foster
(p)
0.4%
exploration,
*percentage
alert
787
mead
trustees
zones
##nit
##cash
fy08
ics
##ena
wireless,
##ode
mlr
notably,
14.8
##.com.
der
4q11
interference
hor
compromise
ral
3/
fy07
printer
0.7%
wash
familiar
converts
lenders,
5.8%
stations,
better-than-expected
oxy
waivers
recommends
tailwind
4q10
terminations
##ges
##'0
taiwanese
provisional
##nor
303
quarter..
##lex
theft
capex,
time-
illinois,
hold:
solution,
lapse
claimed
era
visited
mcd
candidates;
fn
leaves
##via
non-current
unc
mat
acquire,
squibb
depend,
##ever
anticipate,â
15x
gr
valuing
2711
vl
2,8
newspapers
transferring
cu
kids
##co,
48,
library
fluor
disappointed
concurrent
fon
features,
interpreted
chartered
##600
##mit
standard,
\u\u
rh
nutritional
sai
homes,
deals,
zealand,
charters
patterns,
6-
exploit
sf
disclaimer
##rg
wear
##mt
coo
orange
100-
##ne,
doj
##rand
bi
limited;
issuers;
ethylene
utilization,
hcv
sen
?b
rationale
##power
ju
"tactical
##sw
u.s
focus,
mandate
dw
68%
supplements
report.
long-
restore
gain,
london,
##o's
ski
court,
buck
blackrock
cro
affiliation
hierarchy
society
ownership,
non-exclusive
zimmer
##omi
bri
online,
cs's
recipient's
crown
forfeiture
activities;
correlate
employing
migrate
type,
##1/
##1-
progress,
auctions
hopes
cantor
ramp-up
reforms
cisco's
##ology
vis
resistance
6.3%
hopeful
##ket
vista
undergo
kodak
##sel
##rant
knew
reflection
inflection
independence
info
consummate
non-bank
inkjet
##ath
##3-
pizza
##5%,
hepatitis
ortho
##ola
•c
potash
attractively
y2k
rain
exploratory
pre-s
failure,
kellogg
bet
##tem
“s
england,
o'neill
quarter;
##ire
rough
mf
##tate
[data\utable\uremoved\u2
(per
6.6%
principles,
avoiding
arc
committees
uptake
understood
cancelled
responded
##mal
sydney
15.4
##mann
pjm
##ach
arbitrage
##ress
131
nvidia
rent,
android
geography
raises
quest
contingencies,
spare
preview
##gram
greater,
##ida
exc
materialize
##own
rep
tx
treaty
(2.
dg
above-average
##mor
overdraft
meter
rubber
guaranteed,
600,000
##oo
appeared
declines,
shield
##qua
samples
men's
##uth
##ros
##ars
switzerland
engages
corner
beneficiaries
##eh
titanium
gn
(9
##-la
##ies,
lowe's
att
approximated
0.8%
6.2%
a,
'07
populations
coverage;
counties
shipments,
25,000
occasionally
education,
collection,
proximity
##cost
##tional
hen
("a
15.2
personally
cup
117
risen
interior
consumable
transact
timeshare
curtailment
deere
statistically
##dor
diet
hurdle
supplemented
may,â
alongside
surgeons
fm
clinic
gri
denied
##oxi
consequence
abi
roles
prop
tax-equivalent
later,
price-
formulations
discoveries
(toronto)
##ject
anybody
installations
avon
restricting
proof
##af
tor
appearances
##cat
turbine
frontier
mortgages,
fl
unprecedented
crest
cluster
totally
initiative,
encourages
h2
15-
##bor
##tein
(particularly
lewis
185
##ets
kidney
“p
trim
acquisitions;
allowance,
isolation
1a,
warrants,
specialists
i.e.
constellation
affo
correlated
hvac
gc
gauge
101.
2009.
mitchell
refineries
na:
##ious
develops,
acs
##gi
packet
exa
huntington
contacting
cardio
##enter
things:
kl
franchise,
entertainment,
int'l
book-to-bill
##oni
cord
removing
clinics
knows
advisors,
otti
exhibits
cgmp
eco
misappropriation
medium-term
gem
escalation
##-f
nsc
beating
over-the-counter
communities,
(se
companies..
ami
18.5
panels
answered
headline
allocating
mon
ree
u.k.,
tysabri
walt
5.9%
done,
thorough
ordinance
0.60
15.6
proceeds,
citizen
abandonment
rid
ftc
simplify
bsx
116
##hn
6.4%
veri
outperform;
bottling
regarding,
exceptionally
pla
jnj
##bury
collectibility
##book
mcg
loan-to-value
mind,
applicant
arena
reported,
shanghai
1.50
lm
announcing
-2
15.3
193
notify
terrific
legend
50-
sweet
predictive
##let
##more
phased
rp
cdo
success,
ciena
feb
risk-free
##gene
15.7
bombay
##-20
steel,
oregon
know-how
ins
8.
consequence,
transitions
swaps,
flavor
(topic
##nder
dubai:
craft
124
amb
transmit
aps
directv
criteria,
verticals
situations,
interpret
hills
(fi
contacts
##eu
softening
chile
certification:
gics
##fr
disclosures..
rm
struggle
mary
linux
ut
attain
filter
estimate,â
contrast,
muted
lou
dress
##/(
1.35
approving
missile
date.
cotton
debate
rockwell
inv
fy06
implants
atlanta
globe
oils
satisfies
funeral
1992,
transitional
##pha
rational
0.45
llp
replacements
optimism
who,
(1
0.2%
franchisee
##g.
russell
america.
pumps
denial
##plan
less:
lasers
scenario,
rated;
weight:
105.
##uit
evp
(pre
beds
"risk
vincent
globally,
stable,
surveys
wholesalers
##cons
bg
##lie
authorizations
euro,
##bro
##rn
infectious
##(tm)
hotels,
pepsi
amp
biologic
neo
scripts
##cu
houston,
##-le
names,
accessories,
22.0
karen
crew
parker
drilling,
sales;
##alt
genentech
amongst
farmers
peso
market-based
##-level
##z,
update,
7-
72%
##kt
##m.
##agen
revlimid
expression
deliverables
##or,
bhd
##core
##uk
##ncy
disseminates
industry-leading
arrangement,
regulates
0.22
##sd
discounts,
regulators,
##cre
national,
keeps
fully-
queue
accumulation
tivo
15.8
##rth
smartphones
##bl
tcf
##value
david,
##ux
consultation
sac
15.1
15,000
(vi)
upon,
therapy,
strictly
etc.)
40-
earn-out
“o
clubs
gpu
americas,
(ex-
ren
##cam
thousands)
income.
existed
ino
facts,
sei
knee
##eta
fle
102.
xm
acre
10:00
##.s
debt;
##gon
underperform;
2,5
viewing
gw
correct,
will,â
courses
army
##hen
##aâ
apollo
##ml
ff
when,
7.6%
theater
interaction
scheduling
albert
budgeted
fbr
demonstration
secrets,
outlets
(benefit)
irregular
intelligent
pleasure
##lle
beach
o&m
non-securities-related
scotia
reserve,
cool
nordstrom
backdrop
chipset
recession,
deciding
instead,
repurchasing
##-su
shi
fly
likewise,
suites
papers
wy
facebook
(na
omni
sulfur
includes,
(discount)/average
dioxide
filtration
sector;
##set
6.8%
##x's
##cher
studios
administrative,
235
sas
##america
predictions
choices
lg
islands
infections
("the
promise
205
interest.
##eno
tac
7.4%
17.0
nathan
interconnection
100.
int
entrants
od
ipod
categorized
(20
underperformance
ev/
1q10
6.1%
##sts
##cell
4q09
##&t
##ote
j&j
##tte
16.2
schedule,
competitively
notices
personalized
codification
chicago,
##ban
because,
##lor
sel
marketer
emi
(2
validate
18.0
notes:
nac
forfeitures
uncertain,
individuals,
mot
jackup
insure
foundries
1933
(ro
arrange
street's
incom
##7)
meat
coverages
is:
advising
energy's
("m
offline
##wr
"relevant
1h
103.
1/2
retrofit
factual
##xy
##late
stayed
pnm
unfortunately,
union,
reserving
confirmation
moody
holidays
472
##ici
non-compliance
(di
##ico
operational,
requesting
10x
(lo
barnett
##corp
xr
##rch
spill
##is,
##-ne
reconcile
investigate
turbo
ane
gb
databases
large-scale
as:
opioid
"f
altera
1.75
bag
##-day
locally
company'
branding
pg&e
collaborators,
##aid
chubb
repeal
ceramic
qs
2q11
offs
prosecution
unions
"in
2,4
adults
7.1%
consensus,
hay
104.
uni
##ann
tdrs
(ph)
##ink
filling
inaccurate
##/other
consumed
dallas
1.05
thresholds
object
lexmark
##k)
solve
chose
disorder
(be
7.2%
reliability,
camera
exercisable
dai
cru
dil
151
dana
bv
substantive
pac
commonwealth
touched
3.50
lauren
##/ma
hence
##road
llc.
0.9%
##-pro
arkansas
slide,
non-o
jcp
graduate
warburg
##urg
totals
vertically
asia/pacific
##-rated
##hro
filled
04
subcontract
##ism
16.4
##/1
pressured
assets)
newbuild
steve,
appraisals
sanofi
16.3
bolster
announcements,
script
11.5%
expended
##@credit-suisse.com
##tl
border
decision,
73%
inb
##lia
##direct
affected,
##'d
uns
switches
##-0.
##man,
roadmap
caribbean
unregulated
terrorism,
missing
##erc
##-back
mount
eastman
##wear
honor
companies'
overtime
selecting
(of
jersey,
25%,
busy
indexes
?e
16.6
distressed
##onic
qualifications
dick
verify
mkm
##nf
(unless
consol
4:
businesses;
pathway
concurrently
conversation
graphic
configuration
cot
brain
unp
indirect,
mumbai
cris
(mi
pp&e
drew
30%,
0.00
##with
##yer
programs;
retailing
doors
8-k,
bios
606
determinable
rigs,
##int
owned,
mri
mcfe
(sa
exposes
##thi
failing
16%,
customerâ
##tics
telco
multi-p
##tail
##g's
ee
##asi
amc
news,
disagree
ten-year
sss
"t
143
eaton
yum
cross-border
cash-
revaluation
proforma
withdrawn
clinically
lockheed
oi
logos
bcfe
##ese
lynch,
(cl
a3
cfpb
joel
mask
##stor
medicare,
2020,
inter-
?this
muscle
character
reports.
safeway
sandy
alltel
cros
##-0
pine
##mill
110.
1991
disposals
depends,
370
fax
(one
##tom
cingular
##uel
##jan
steep
issuers,
2.00
##har
2/3
hf
0.37
##-en
classifications
cereal
ki
##lass
chen
##9.
10-
growth..
##bre
full-
7.3%
231
earnings..
catastrophes
assurance,
h1
'13
##-11
##ev
pct
trail
remedy
fleet,
disappointment
ale
attending
##w,
##uce
quickly,
##ose
6.9%
were:
##adi
shops
turmoil
##ering
7.7%
behavioral
salvage
surcharges
observe
ih
establish,
emerson
diagnosis
(ta
crã
government-
##tia
recalls
bellsouth
traffic,
heritage
roaming
chesapeake
lighter
alignment
(subject
t-
conservatively
(ma
fault
rice
9.8%
takeaway
field,
federally
pinnacle
envision
f0
breaking
(our
##x.
##rica
continuity
leaseback
uncertainty,
carol
##!
16.7
##isi
0.24
make,
8.2%
##ters
sporting
##cess
cin
igt
0.19
60-
spo
##s..
150.0
rd
reaffirmed
?s
15.9
medium-
(comp
cyto
fico
chemotherapy
end-to-end
##-only
##rti
##ado
repatriate
maturities,
##oa
subsidies
intact
7.8%
202
di
##ington
mor
prevented
predetermined
deteriorated
fte
192
hudson
(so
bottom-line
380
##vol
##aco
negative,
universities
kan
agreementâ
glucose
disclosed,
paris
oxygen
moment,
##chan
deter
lawfully
0.21
finishing
clarifies
2010e
##jet
spain,
dep
skill
loans)
coal,
factor,
por
##xin
peco
assesses
##l-
games,
tuition
officials
2,9
wes
cha
listening
workflow
vic
randomized
can,
(la
##5/
69%
streamlining
building,
supplying
proves
lastly
computers,
merchandise,
inland
chemistry
-10%
mur
"c
3q11
shore
rei
foods,
speakers
non-
horizons,
freedom
threatened
fabric
##ash
##tro
2010)
finite
127
speculation
synergies,
##ree
##9-
gordon
onetime
16.1
medco
surprises
passage
valves
10.0%
##fy
consume
ras
humira
co-manager
dealership
wonderful
smb
0.23
dra
##th,
salesperson
accountability
twc
lloyd
##3%,
cross-selling
guard
doctors
artificial
kit
cce
wondering,
tractors
tep
eps.
well-capitalized
##change
stents
##-to
##date
mcdonald
jordan
spark
web-based
intangibles,
##bra
coal-fired
wilson
##u,
edition
##m-
guarantors
11:00
state-
purely
suits
'11
noncompliance
restriction
authoritative
tarp
##lled
(before
unbilled
schlumberger
245
1q09
0.28
walmart
##research
netherlands
highlighting
guarantees,
coincide
##%),
150,000
365
ring
?re
halliburton
antagonist
workersâ
indefinitely
##bon
share.
video,
prohibiting
expedia
garner
easter
##1.
tag
bill,
##pen
acc
("p
(ab
mold
up-front
respectively;
sirius
17%,
corrupt
16.8
metlife
##chi
fol
syndication
optic
interact
quarterâ
community,
quad
##kel
8th
encompass
p&g
tro
voluntarily
##type
non-ca
tellabs
altria
##9%,
0.27
fish
non-p
movies
higher-margin
##je
unb
avenue
##-mo
##/2
technology-
supportive
labeling,
airbus
##hare
pay-
gmbh
(inc
mdt
contributes
##usa
matured
administer
##lb
consolidations
non-deductible
trustee,
##v,
whit
services..
bas
kla
capturing
underwrite
realizations
intend,â
optimized
pas
##holders
platinum
acceptance,
attacks,
lane
##700
identify,
states:
companion
popularity
##unit
israel
peru
multi-c
procter
lateral
(mo
(o):
multimedia
pakistan
those,
(am
##201
directional
angeles
"item
abn
lawrence
kc
spec
##gu
##eed
related,
recombinant
invasive
162
hospice
report;
bard
126
kits
8.4%
(pe
cognizant
unitedhealth
ecosystem
bundle
•f
##ists
christmas
off-
(3.
longbow
flip
i-
enforceable
3,2
##bin
75.0
##ment,
fmc
1q12
##ord
batteries
138
macau
servers,
71%
patriot
##oh
pfe
(ar
##pat
cleveland
pronounced
##ph
public"
adhere
19.5
“b
##mos
##6%,
vf
handling,
predict,
custody
##urn
preferences,
hop
21.9
cooperation
119
labels
(me
wunderlich
##far
23.0
bunch
reo
nations
10/
run-rate
seats
launch,
injuries
complaints
##lon
inde
equity-
petro
##disclosure
tonnes
##nch
lump
buyout
##k.
year-
##gel
hca
compatible
iowa
##.k
sub-industry
endeavor
jennifer
georgia,
weakness,
indexed
authorize
sha
hewlett-packard
durable
adrs
microprocessor
o'
74%
137
buildings,
autodesk
##ia,
kas
4.00
assistant
xbox
snack
forum
8.3%
bakery
##stri
clearances
confidence,
##son,
siebel
allegheny
78%
intersegment
##-sc
shortfalls
uncommitted
reminder
hershey
?rbc
##8%,
wc
##mes
styles
##xo
538
pursued
cab
##sca
obligor
risk..
antenna
##will
hipaa
##fen
tip
77%
vel
vmware
len
##vas
marketers
bbb
tax-free
bankruptcy,
kroger
##:.
##cle
spirit
wheat
lang
de-
ours,
rai
wf
...
##hed
blu
(eea):
persistent
dura
wastes
moore
##4-
107.
eleven
##rating
##0/
##hou
sector..
##gas
##tation
polymers
insurers,
predicting
console
on:
tumors
warm
##eet
vacant
southeastern
?t
dig
amortizing
jose
22.1
praxair
(q
oneok
mari
146
0.26
solid,
rac
106.
casinos
opportunistically
basis..
##-pa
##ung
marginally
##rop
-4
hon
coated
200.0
##mart
gom
sco
##-oriented
##mat
##az
22.5
(ap
p/
120.
ie
non-f
supervised
16.9
robin
425
eurodollar
vas
(or,
marking
incorrect
##-si
##á
##zyme
fifteen
##nse
accompanied
monoclonal
lazard
dosage
cai
##s:
replicate
0.32
euros
nh
##4%,
9.0%
##ken
##--a
##bridge
should,â
rheumatoid
sell-through
sequence
hec
colgate
215
##sse
unmet
nymex
consequently
accurate,
remeasurement
virgin
schering-plough
##2%,
harry
metastatic
clients*
##1%,
1986,
gh
oled
("n
##-by-
1.20
recapture
flexibility,
134
payer
40,000
(canada),
montana
predicated
bh
mont
##/10
equity-based
weekend
##umab
louisiana,
lottery
ltv
jb
gses
(te
strikes
##ts,
company-wide
df
22.8
##oll
horizon,
##s,"
wti
table,
brazil:
invalid
dealers,
##emi
caris
present,
##(b)
syndrome
abbreviation
inject
fy05
fits
rio
129
unprofitable
marsh
christian
24.0
comerica
##nie
burlington
miami
heads
2nd
feet,
leap
vies
veterinary
quotes
meta
skus
##lum
(taiwan)
warehouses
statements"
cheese
precious
links
pair
3,1
0.75
upside,
stra
record,
kurt
damage,
##rat
travel,
salesforce
hart
inn
person,
149
doubling
##cd
nation's
265
column
malls
sempra
answers
remuneration
securities)
(it
##loss
##-d
agilent
educate
equity.
##eer
##le,
tune
peoplesoft
narrowed
indonesia,
("
assay
##par
##nr
attach
oma
1x
115.
winds
barge
forth,
##wal
##(a)
##quisition
limits,
##oph
compass
12/
sanctions,
17.2
divestitures,
401(k)
truckload
printers
alco
ibm's
matter,
##alo
fragrance
coating
##war
takeda
17.1
##-on
##rou
(st
hep
company-
paid,
closest
back-end
exists,
taipei
##works
##vr
ok
b-
420
illegal
(7)
##flow
warmer
trials;
##teri
##ald
(15
##.5%
##dr
238
state-of-the-art
sense,
coastal
76%
monte
publicly-traded
sed
5.00
apple's
nrc
##7%,
##sted
outperforming
##in-
ontario,
123(r)
17.3
introductions,
8-
(y
infringed
##800
underwriting,
credit-
pali
footnote
pie
collaborate
abbott's
basically,
(due
##als
formally
bin
fire,
fig
flowing
##eon
deductibles
patterson
where,
should,
2q09
xilinx
0.33
enron
switched
nec
wise
##xx
the,
##class
decree
bil
qatar
pullback
23.8
plate
non-con
justified
tea
##by-
stan
costa
compute
advances,
mortgage-related
##shi
yesterday's
dex
microsoft's
“re
advantageous
presented,
mandates
liquidated
aggregates
bby
ui
dam
blow
han
23.7
bayer
##fall
injunction
cos
191
abroad
talented
etc
post-retirement
##ors,
earliest
##rol
##elle
##2/
molecules
gentlemen
fear
viral
##average
23.2
rim
mart
impressed
oxide
700,000
mitigating
gse
enterprises,
sum-of-the-parts
orthopedic
bounce
##hand
##/pro
payors,
means,
ports
images
stream,
replaces
billion)
83%
##lab
(21
23.3
##pac
commentary,
##rip
consumer-
enormous
##key
##aro
##able,
end-market
##income
pred
ald
1.10
weak,
6,000
non-residential
vigorously
right-
8.6%
investments;
below-
("i
tanks
##/4
##some
sau
screens
##-be
five-
bankruptcies
stock..
occidental
17.4
graft
ipo,
berhad
##ured
fra
bau
##eter
blo
reinforce
##tch
##c-
ple
##mm,
follow-up,
index;
dell's
out-of-
cel
##ound
facilityâ
##p's
ineffective
153
23.6
(defined
"g
sectors,
laundering
home,
compu
4q,
rot
0.1%
equation
18%,
8.7%
pon
##oti
depreciable
##/mi
lens
arthur
##y-
reaches
entail
timberland
2.50
root
glo
equivalent)
undersigned
yo
yoy,
17.6
freeze
estimate.
(201
pic
optional
opposite
redeploy
device,
weaken
demo
rate)
##logic
##itu
##del
onco
turkey,
ble
newmont
rulings
veritas
reposition
##ume
recycled
thi
depositors
contributors
certifying
list,
trailers
compact
500,
non-affiliated
breakout
##oriented
800,000
regimen
(now
(ho
publishers
##-an
duplicate
fidelity
skew
2009)
3,3
wan
crt
illustrated
rack
associations
##ette
0.70
everyday
35.0
contrary,
philippine
germany:
outpace
tru
intensely
ink
pharmacies
delphi
seasonality,
issuer,
dsp
met,
##pl
##ield
patch
population,
rb
violated
mad
categories:
##/w
stoppages
leak
ipg
##lem
titan
##ional
17.7
unfair
204
reservation
passing
mci
unobservable
multiples,
step-up
bursa
##mate
##rig
malaysia:
prep
##sin
17.8
uniquely
cosmetic
##eco
flo
(do
sixth
gram
catheter
anti-takeover
sem
differentials
thru
nbc
approximates
microwave
railroads
years..
lime
##table
255
"r
inf
revising
2024
impr
##action
7.9%
pulse
time..
reli
(au
any)
occupancy,
takeaways
susan
##hol
copyright,
momentum,
##cm
attempted
decision-making
w/
baked
108.
##s.com
money,
naic
taco
authored
0.34
##k-
seasons
stri
82%
(13
square,
(cont
##vert
##uct
obtains
wasnâ
rl:
loop
##ela
income)
direct-to-consumer
3,4
notice,
equi
24.4
cultural
plaintiff
"management's
3q09
nonp
ava
feasible
provider,
deferrals
lawsuits,
##zz
9.4%
bal
unsafe
0.80
mobile,
scr
c.v.,
txn
##pace
handheld
##mith
non-s
expense)
one-half
nano
arrears
clauses
triggering
22.9
0.55
109.
collaboration,
broadening
prec
near-
kris
coordination
##@rbccm.com
two-step
wor
8.1%
toronto
tampa
one-off
7/
custody,
sized
short,
194
lei
harrah's
flow;
emerged
b)
thailand:
8,000
dx
##-bo
throw
morgan;
vale
overhaul
trailer
renovations
##losure
crane
raytheon
predicts
##tas
blockbuster
lessee
##-co
##nea
##.b
##ying
headcount,
2q10
defendant
("e
pacing
##rei
(415)
paso
gbp
ipl
##7-
##lant
##urs
besides
##-type
amendment,
conditioning
tick
afforded
##rep
dropping
##quity
##other
mailing
remodel
##gl
mid-point
intermediary
iraq
##pol
pall
##dit
5:00
nascar
vm
gamble
##vy
fleets
fixed-income
##vate
hcp
roh
to-date
##pati
unencumbered
transitioned
abandon
unplanned
(phonetic)
facilitating
##phone
##-plus
clorox
##ic,
period..
telling
wayne
bj
vz
alumina
loading
24.2
(fa
##ridge
groundwater
##cli
tenants,
hamilton
##ery
##xt
##brand
##ake
prioritize
cheaper
ambiguities
add-on
worry
tubular
(cs
affirmed
##tur
für
18.1
24.9
##zy
snap
ppa
(although
##rock
##bel
wi-fi
visitors
(u):
##mus
inception,
fight
lumpy
##hal
watt
(v
stays
unh
korean
genes
conclusion:
facilitates
danaher
dampen
##nel
subscribers,
##lf
hospira
customer-
additives
origin
4q08
20x
'06
cli
24.7
##ind
both,
bluegreen
thompson
##ovi
fp
##comp
##gic
##aged
"i
0.31
earns
insignificant
##ema
##rne
##rna
strat
rub
non-cancelable
pulling
developing,
.1
jak
investors;
aranesp
##cl
ry
9.2%
distinctive
recommending
b,
paid-in
apac
(calgary)
rocky
above)
18.6
securities;
crush
drawing
24.3
releases,
pres
##come
substandard
shy
cameron
8.8%
3q10
venezuelan
perceptions
##-30
commissioner
promotion,
build-out
lsi
leach
influenza
postage
divisions,
##.c
(cr
##ark
spirits
oversee
undrawn
intc
designate
sg&a,
taxus
central,
##rect
histories
thirty-nine
24.6
gro
horse
charging
gli
##ndo
lawn
jeremy
widening
carnival
18.7
18.2
rem
boston,
fdx
devoted
0.36
starwood
runoff
##/b
19.0
##(1)
ug
breakthrough
defense,
best-in-class
responsive
kin
orderly
jury
theatrical
ani
(po
##tp
difficulties,
24.1
##credit
84%
rowan
qua
##burg
generator
##wave
##uti
itself,
personnel-related
isnâ
formats
##/lo
philadelphia
9.3%
##ified
cybersecurity
juice
aerospace,
285
readiness
##db
thursday,
restart
handful
0.38
name,
compaq
##hes
revisit
lisa
assigns
contra
##growth
112.
fracture
pant
separated
humphrey
o.
inspect
clean-up
outpaced
best-
canada:
12x
bhc
aro
(unaudited)
refractory
bound
a.m.
##spo
terminated,
hormone
characteristics,
summit
correctly
ntm
revocation
hog
atlas
mas
document,
myo
seamless
fer
calculation,
##doc
italian
maine
##hc
afg
perceive
conversion,
vacancy
liz
21.5
pawn
24.8
5/
##gri
18.3
dsos
reprice
sub-prime
##ami
non-in
9.7%
conservative,
textile
ele
capacities
index.
dozen
(sp
hunt
promptly
demographics
•changes
##under
##part
##gie
9.6%
outweigh
(19
fixtures
##ract
##pital
dakota
arizona,
cryo
gillette
ave
dutch
seattle
admission
##m's
stopped
thereto,
ade
african
mk
inte
ada
precedent
featuring
88%
nia
cholesterol
quebec
centered
17.9
msa
poll
gau
regard,
98%
wholesaler
mortgage,
##any
erode
bmc
year.
pbg
stage,
29.5
##tac
rebuild
pam
##worth
gear
legend:
mah
?f
heinz
registry
commercialized
charlie
##pho
10036
##lly
18.4
##ith
innovate
into,
argentina,
enterprise,
bud
gate
##-ma
##sea
mergers,
fy201
din
perform,
##rac
##fu
non-de
allowable
7029
capped
##heim
2q,
liens,
moderating
mic
too,
colin
(br
0.29
views,
illness
adm
27.0
ibc
hires
##wing
suffering
aon
23.9
156
disrupted
dal
recur
500m
manhattan
semi-
##zen
lit
##2012
jam
filmed
overs
exchange;
whichever
aug
depress
son
a/
##omp
x-ray
constraints,
21%,
assemblies
inflow
(gaap)
non-strategic
amt
gather
eop
##-1.
##e),
##sia
pep
greenfield
struggling
rhe
?o
##he-
chad
##uch
amid
0.65
footprint,
soundness
cog
bm
documents,
##umer
20.5
##els
##hing
18.8
unum
demanding
dispensing
##unt
textron
combination,
resins
##vie
segregated
##-13
3,6
28.0
ibm,
digits,
evenly
r&d,
26.0
television,
condensate
inflammatory
2008:
snacks
##-st
##mis
##cus
reliant
hole
carryforward
(n):
chipsets
8.9%
corrections
invests
##rus
##tim
sport
iii,
##mel
near-term,
gregg
larger,
pulmonary
digest
##ave
disclaim
##col
reveal
kaufman
##cker
tiffany
hazards
111.
speaking,
needle
jumped
affiliates;
2q12
##exp
##arge
2.25
136
sj
temperatures
provisioning
to.
bare
completions
deleveraging
stuart
jim,
xp
players,
opposition
##sn
zinc
0.42
expirations
proactively
13(a)
scientists
##00,000
normalize
seal
cmos
460
facilities;
9.1%
char
##i-
financings,
disclosing
##tion,
##lock
locked
persistency
##lk
budget,
440
capitalizing
reinsurer
doc
133,
registered/qualified
##zar
bli
manageable
tires
ways,
non-securities
##tric
shows,
sell-
optics
occupational
##h)
publishing,
imposing
open-
reclamation
end-users
alb
##wh
end-
book,
##anti
backing
##cut
("g
boom
wolf
lessen
##nto
yourself
disa
medium-sized
25.6
25.4
subcontractor
stretch
ipc
drink
def
86%
sales),
preservation
angio
##tron
##udi
viruses,
sh
9.9%
bor
##uni
kor
##el,
secâ
depositary
echo
voltage
.2
81%
0.25%
evaluation,
470
390
##ra,
plug
##pm
##gle
engines,
abnormal
interactions
wag
dover
'04
229
##dra
electric,
allowances,
1934
3,0
##iss
leasing,
ri
non-b
tjx
xi
borrowers,
ao
rolls
iden
##s")
coordinate
(en
non-g
dur
synovus
ica
##ull
une
slightly,
devry
velocity
footnotes
25.3
pacific)
change.
sweep
astrazeneca
professionals,
disruptions,
participates
##itz
(0)20
##town
housekeeping
amr
mountains
pensions
congrats
carter
737
dev
wound
##logical
distract
##rde
goodyear
pik
nicholas
basin,
minimizing
arts
excuse
##sr
websites,
owe
dayrates
brokers,
lifting
interventional
26.4
turkey
levers
heartland
pre-opening
biosciences
rating..
degree,
mem
##arin
##yle
250.0
atlanta,
##eti
routes
26.7
outlays
ammonia
hydrogen
ass
valores
detail,
twenty-six
incl
lipitor
252
predictability;
mil.
und
##-con
##ater
europe;
##ein
self-insurance
##900
pca
principals
integra
(10
stainless
investigations,
radar
branch;
year-end,
rit
redundant
detroit
(this
semi-annually
##lling
yahoo
ratings/ib
retiree
2011)
worth,
##iti
wb
"sell"
a)
divisional
deposited
##mers
vector
biosimilar
##rge
premise
dh
certification,
prohibition
native
repurchase,
conference,
##rman
25.7
fri
##vic
##high
tickets
##ook
floors
terra
management),
becton
wsi
leadership,
shoes
nareit
all-time
ibnr
gat
1,200
mid-atlantic
knight
stroke
##see
relocated
##vant
usb
shu
25.2
scho
##ce,
dim
##oid
lip
13.5%
vulnerability
war,
promised
diseases,
cost-cutting
occurred,
idec
##and-
##nge
25.1
1.30
late-stage
issuance,
hold/neutral
3q,
26.3
tooling
26.2
bett
edited
orleans
wellness
km
benjamin
jr.
endorsed
##eron
adjustment,
probe
(fe
##til
##lit
announced,
locate
14x
specialties
46,
sides
4q03
3rd
canceled
interfaces
adj
##gg
integrators
midland
accidents
outline
soil
wmt
prem
dom
cher
##odi
microsoft,
disproportionately
(roe)
neutral:
147
##includes
decelerating
avonex
("f
asphalt
free-
##cke
minds
##ada
claim,
indications,
certifies,
covidien
referrals
elli
30.5
computation
(asia
113.
“co
burdens
appl
stein
##xed
kra
mckesson
##ril
cali
landing
gor
(14
##nal
subsidy
167
francisco,
##aut
##oba
factories
margin.
flor
senate
revenues),
platelet
##tera
•p
##mu
chap
speaks
griffin
820
infant
25.8
megawatt
##bri
div
##etin
##rance
##-u
"ma
newsprint
itw
principal,
213
26.6
paramount
zy
undisclosed
##try
rad
##na,
4.50
spi
sch
222
partnered
incentives,
nee
##xe
##nc
submissions
##amo
##bio
northrop
market..
reinsurance,
marketplaces
2,500
wal
beyond,
lows
ew
3,7
2-3
colombia
transparent
undelivered
billable
##the-
out-
##-week
respectively..
monitoring,
conclusion,
cigarettes
accreditation
hm
60.0
ideal
weren't
spreads,
##cies
scatter
##2010
cou
dominated
drinks
debt/capital
actâ
item,
##.n)
designer
variable-rate
require,
0.62
"su
perc
botox
##av
sysco
ear
lagged
tubing
##media
year/year
(le
"s
groupâ
bbl
tolerability
pdp
##rket
15(d)
post-marketing
teco
ped
gsm
drought
bart
incredibly
##x),
governments,
19.3
##test
300.0
(mas)
non-r
activ
19%,
##dec
fluctuates
apologize
cof
npas
18.9
chf
##2m
tio2
##etic
cause,
radian
rfp
nervous
destruction
26.1
(bi
ter
gun
alll
cashflow
supermarket
"be
2025
##câ
##ass
till
ruled
reynolds
(4.
subordinate
geological
bdc
clari
430
enacted,
condominium
instrument,
##path
txu
ambi
layers
habitually
##cale
##as,
##pic
l.p.,
##ude
child
intra-
ranch
dimensions
"fi
refusal
mid-single-digit
##ava
87%
m&t
##eng
mrk
##blo
walgreens
absorbed
magazines
##f-
pol
authorizes
##demand
168
315
evening
99%
##ule
afs
tf
f&
##ref
julie
tomorrow
1.40
##pers
##c),
opens
power's
kg
legg
fraction
unvested
sodium
ham
point-of-sale
cw
##rh
recapitalization
asb
janus
firmâ
##'l
wyoming
broadway,
wars
colorado,
meredith
permissible
152
chassis
non-pro
apparently
19.9
translation,
waived
terminating
differences,
2002.
f4q
1.45
athletic
##lation
sending
26.8
0.43
(18146-x)
scha
parity
capitalizes
dic
rein
landlord
221
114.
25.9
unic
##gt
juan
pld
19.2
##dge
plan,â
##capital
0.39
distinguish
invalidated
wendy's
sche
defaulted
persons,
depict
116.
six-
32.0
suburban
analytics,
##-15
603
uplift
169
79%
19.4
236
lower-than-expected
stepped
knowledge,
allocable
observations
##hon
consideration,
plus,
jeopardize
charges)
barrier
##oth
poultry
off:
clause
resilient
mira
dif
defect
licensing,
von
sublicense
disorders
unix
kent
(ra
terminates
##genic
prices;
ellis
##usi
##nding
345
##code
wing
agonist
discharges
auditors
##base
232
directory
##non
u.s.)
27.3
nl
##-v
crack
10.2%
conferences
brean
janssen
##-21
knowingly
ramps
circle
"ca
##-ac
##pit
hawk
range:
founder
92%
##2011
(ne
underperform:
166
0.48
quote
139
spend,
organ
##-fr
##ump
dominate
assemble
quarter-end
##gate
railcars
accenture
19.1
##eat
growing,
xcel
changed,
jse
spr
50%,
commodities,
products)
kal
'10
##din
desk
"de
##quest
##isa
##eni
ladenburg
480
1h0
enrolling
##tek
bodes
orcl
capability,
growth)
headed
##ators
longterm
timelines
disclaims
adopted,
##gment
1.65
forex
soliris
##.0%
clothing
would,
0.41
dangerous
##y"
29.0
sk
rise,
##spa
nar
##nl
##aw
(5),
spur
apa
count,
advertisements
overruns
mining,
knowing
##erl
unfortunately
static
forti
ride
resolving
microprocessors
swa
sales-
lessees
repro
haynesville
##ien
19.8
website:
mason
ethane
##logists
conduit
factors"
friendly
117.
(total
pap
##n.
ante
admin
currency)
messages
33,
nau
##-sh
developed,
0.44
logo
ela
##b's
antigen
eps)
royalties,
lion
journey
canada;
##store
depression
d.a.
"ba
##hic
mboe
distributable
10.3%
##nom
deducted
cand
233
##-di
assertion
##gua
amounting
##/su
fabr
seagate
19.7
sq
keys
pick-up
ids
ill
##lr
i:
##uld
(cons
worker
unsound
manufactures,
27.4
##city
0.90
enthusiasm
4q04
##uing
flavors
giga
just,
##dg
hmo
financiero
##q1
01
facsimile
bru
netting
##nos
1.25%
##tol
highs
hopefully,
##ova
cann
##yte
•we
translating
shoppers
(x)
withstand
decades
##flu
##.o
pge
##lease
mainland
475
rates),
##registered
sho
##0m
##e/
seb
rand
"lo
ust
##-y
category..
audit,
turnkey
vin
performance.
ess
off-label
anti-c
13x
##lot
'14
##ch,
awaiting
tracked
228
alm
224
19.6
asserting
?p
##ork
28.4
10.4%
“t
in)
presence,
mitch
sequencing
posts
fluctuating
www.c
induce
130.
shot
risk-reward
33.5
metallurgical
recoup
##/3
pete
cath
shr
##rum
backs
##/201
newest
effort,
breached
##period
zoning
25-
##\ulines]
##ased
furnace
refocus
10.6%
profitable,
workover
avista
9:00
##5m
qcom
c1
pros
34,
brick
1.12
dispatch
connecting
voted
##erve
##spe
moderated
vsoe
oversupply
##not
discount,
(note
wd
micros
interbank
stocking
fem
##bou
'rl
authentication
analyst.
expenses:
sizeable
development;
263
premature
abt
collectively,
logical
bush
parcels
michigan,
45.0
amersham
moo
osb
##oint
citibank
precisely
iri
davidson
52-wk
smaller,
four-year
410
deli
aj
##-do
##last
93%
convinced
isi
(next
congressional
##igh
distraction
literally
ces
anti-t
vr
likely,
734
necessitate
fluctuate,
implemented,
##away
aig's
##represents
up-
held-to-maturity
economists
fibers
advertise
residential,
fg
privileges
cazenove
lies
“d
dialogue
"morgan
loe
internet-based
aqua
quicker
realized,
double-
(member
paul,
(ph
##ty,
(“c
enrollments
signaling
226
bars
6/
software-
general:
ebita
10.7%
occ's
clinicians
dock
xen
long-standing
smelter
0.47
pause
ny,
##hos
##gistered
##-14
415
renegotiation
##lam
services)
jabil
cul
##nis
118.
ramped
estimates;
fork
grainger
amd's
reside
cle
restricts
webster
pictures
reduced,
fall,
ge's
kon
itc
banner
##guard
corporate-
(cma)
761g
medicinal
exhibited
##data
##ray
midst
penney
joy
hedges,
##yne
##/mo
27.7
7,000
(x
cox
274
go-to-market
anemia
249
34.0
27.6
mexico:
605
§
drops
jeff,
dispositions,
originator
he/she
finalize
##oro
21.0
handled
hasbro
(by
swings
safeguard
##app
registrants
experiment
austin
sor
siemens
agenda
##die
leverages
leo
20.2
expects,â
aims
reluctant
26.9
impairments,
(cvm)
##wall
##bet
card,
non-covered
(ti
ide
##oke
ebt
##hold
1/3
value-
management;
d:
simmons
3,8
offset,
perf
choosing
amat
"buy,"
##adjusted
millennium
trucks,
500.
##lue
implementation,
rr
mobiliarios
mid-200
maryland,
industry-specific
##0%,
zyprexa
alcohol
usage,
renegotiated
##burn
mid-cap
1q05
1q04
0.46
slate
height
f2q
darden
alleviate
hypertension
("b
##das
they'll
inge
27.8
singapore)
ret
4.25
33.0
##elli
94%
ltl
tube
equipped
##rse
investigator
rate-
headings
##kins
28.6
younger
28.3
##cro
20.6
acn
notesâ
convergence
minimally
genomics
tsx
1q03
bmy
##/sales
magn
dir
##ity,
ensco
119.
##cr
baltimore
neu
intermediaries
##zn
##mia
234
(company-type)
hos
mani
279
##rx
fos
1585
cri
##lig
barrington
analytics.
##rick
suspensions
advancement
227
comissao
hp's
diego
business..
lac
##versi
story,
psoriasis
(gr
part-time
reference,
interest)
610
qualifies
##roc
##edi
pooled
##omm
firms:
tiered
fb
hydrocarbon
investment-grade
grounds
alliant
(over
##pu
prohibitions
##eur
automate
charge-offs,
##funded
agri
assembled
exacerbated
evidence,
egypt
355
companies/industries
tempered
cannibalization
nii
proliferation
plains
defective
trustmark
mlp
cells,
valuations,
budgeting
##iz
##gni
deepen
chunk
aaj321)
technically
filters
20.4
188
chat
unconventional
##ove
lymphoma
riley
mess
##10,
(-1
massachusetts,
sight
operations"
##ve,
##ono
##tree
non-deposit
morgan)
123.
sis
##forward
shan
exempted
permits,
y/y)
"mo
karachi
equate
199405335r]
##bul
enforceability
although,
amo
##way,
corporation;
repo
12month
##cit
"we
manu
fahad
18-month
1991,
beam
obtained,
transmission,
leerink
at&t,
lived
27.1
35.5
0.52
##te,
laundry
fraud,
223
mainstream
lifecycle
##w's
dun
american,
##cont
bms
doing,
harsh
dismiss
banana
constructing
performance;
##lg
97%
claiming
(ag
validated
##rio
intravenous
##radi
by-product
##urt
reassess
20.3
vitamin
manufacturer,
##idi
span
lam
8:30
##o.
cheung
repeated
indonesia:
36,
scaling
buy)
(pvt.)
flag
zen
montreal
oh
##rte
navi
inbound
onboard
(shouhizei)
sampling
magnetic
##-bi
rentable
kh
##.o)
##coa
successfully,
##râ
fpk
##wire
attend
##-.
sku
stimulation
?g
fh
bundling
##bla
dark
##verage
bachelor
quarter)
philippines:
in-force
warranties,
consortium
(fo
perm
##bia
utah
programming,
fq4
charitable
16.5(a)
##ean
##hin
contaminated
prior.)
jpmss
##tine
americans
workplace
markets..
lower-cost
##inal
hydroelectric
clients'
revoke
28.8
no.:
dbs
continual
deposit,
mou
delayed,
122.
##-22
obs
256
(attention:
performances
##duct
subc
receiver
arranging,
*for
soda
mm)
[mica
40%,
##/n
fad
soybean
rush
(vi
60,000
“e
improved,
analyzes
presumably
salesforce.com
mcm
##ret
f3q
provision,
?ma
(jpmcb
misconduct
4/
##wan
evans
##tier
stj
(less
##print
visiting
##his
hkex
disclosure,
locality,
treaties
security/instrument
target..
##gb
start,
erik
sle
lowers
ltd.;
scope,
reimbursement,
procedural
tes
##bas
(adjusted
##oso
voice,
diversifying
constrain
121.
##stin
structures,
305
division's
cream
medications
shin
tom,
catalogs
arabia:
cpg
observation
freeport
cessation
roof
wondered
heavy-duty
al-faisaliyah
##load
fur
16x
grill
##force
sales:
##bine
campuses
12-months
dynamics,
viewers
2x
subt
non-financial
28.1
reagents
##8/
entre
income/
attestation
upscale
”)
##@c
o/s
cancers
borrower,
global,
line-
lar
##3/
##new
##itte
year-earlier
1986
fibre
extensively
28.7
28.2
risky
remodels
23.5
##/risks
##quent
brooks
medicaid,
??
nelson
easing
jacobs
tort
refrigeration
(amounts
laura
##pecific
##lands
pay,
less,
navigate
(jpmss)
10.8%
?c
vc
empower
1.60
neg
6)
http://www.morganmarkets.com
medimmune
pot
##ota
shipyard
material)
adt
paychex
hel
##lett
decade,
dates,
unlock
combinations,
tractor
externally
appealing
composites
##ification
discovery,
established,
##ssa
##apital
settlements,
##currency
invoice
oracle's
drivers,
cardiology
punitive
votes
obtain,
dismissed
reco
beth
census
world-class
##riti
schi
announces
##-ba
(0
bore
ireland,
fic
##pla
restrain
recommendation(s)
ams
enforced
cap,
definite
capitalized,
technologies;
237
##dee
seg
ox
settling
high-growth
27.9
##-n
##rma
competencies
product-
fantastic
900,000
portability
fy04
rogers
items:
37,
295
worsening
attracted
peaking
boats
offered,
fasten
wall,
##-40
multic
89%
ott
##tos
##gil
ultra-
enzyme
##rry
##lai
indiana,
dallas,
tob
cayman
as-
##bm
deviation
163
aeros
tb
(sebi
##zin
years;
shallow
24.5
mack
##isk
##rest
31.0
##tent
exert
##-line
30.1
levered
narrowing
and.
140.
fda's
hunter
investigating
20.1
sam's
auditor
ach
adhesives
it'll
##fla
outs
debt-to-capital
hut
124.
##[data\utable\uremoved]
constituted
##hd
rights;
budgetary
16-
##i.
##bli
35-07079
evolved
subset
indi
cautiously
encompasses
dtv
2.75
##eous
lever
roy
cur
on-demand
ue
xe
vintage
notebooks
brook
##nec
27.5
20.8
##sensitive
re-a
harmon
argument
xom
outperform:
exo
administrator
kil
950
px
bottle
##ima
##vascular
?l
ros
##-b
emr
bio-
consequences,
meal
3q12
##/pa
stating
lnc
fid
(213)
gas-fired
##py
hdd
##land,
'05
##vered
newell
topical
nevada,
implications,
dedicate
##-al
##ntin
pcs,
signings
misuse
displace
##yd
squeeze
“risk
champion
##like
bol
##cept
pse
##efficient
lly
fiserv
chrysler
##ym
##fl
11.6%
deadline
trade,
assessments,
100m
20.7
psycho
(ci
taxes)
brandon
244
(5.
##ates
12,000
weakest
(“f
sue
slu
modem
inappropriate
29.9
edi
96%
##lve
furnishings
post-c
alternatives,
pork
payroll,
##lect
concord
act"),
so-called
10.9%
share..
structuring
etp
faa
10.1%
explanatory
overvalued
imax
(generally
335
189
29.2
##cp
anne
##ivity
172
darren
rate.
upturn
post-approval
##track
sales/
roc
"d
chu
22%,
242
asm
##she
hampshire
cetera,
##esh
cornerstone
29.6
reba
dead
smoke
emp
cyclicality
wolfe
graham
slated
tvs
granted,
das
underweight/sell
jen
multiple-
transocean
248
sanction
##cil
reinstatement
mec
exposures,
reversals
fcpa
relinquish
##dan
gab
houses,
foreclosures
caf
purchased,
could,â
##k's
oxford
##sto
asic
algorithms
pris
semi-annual
shawn
prince
competition;
1.55
11.3%
business)
mhz
##iness
inquiry
angel
##size
unavailability
springs
•o
tuesday,
evan
statutes,
katrina
bradley
spaces
37.0
18-
xt
relationship,
sme
intend,
lengthen
3q03
##tori
preparation,
loans;
fare
##ctor
sca
releasing
horsepower
##pra
243
vegetable
marco
phrases
appraised
29.3
s&
##mpa
253
ceo;
esa
renewing
prudently
##comm
surpass
##stat
vip
135.
unlevered
intuitive
1.02
computer-
##revenue
1987
(earnings
mge
##dent
thera
nucle
##tam
these,
bowe
29.7
belt
possession
##-month
abilities
109,
##tter
bob,
basis;
percent)
emc's
##craft
arenâ
const
##bbl
phi
##-point
rap
21.3
incon
bowl
dispense
revert
interest-only
shares..
netherlands,
arguably
##nted
(he
##iri
##gue
##dep
stark
##es)
11.2%
adrs,
bro
in-depth
##rr
expenses)
(pty)
privacy,
e14
eme
furniture,
2012)
##b-
authorizing
many,
21.2
##oss
##fn
##cri
utica
mid-cycle
linda
##nna
nis
wake
sli
credibility
what,
prescribe
tightened
318
##'1
respects
radi
.5
i.e.,
combustion
yeah
kirk
theo
advertiser
29.4
exxonmobil
olive
cbe
##-like
svp
hl
21.6
##eps
##&d
aged
##dex
mmcf
pel
segment:
333
##&g
21.7
##ffe
exist,
3,9
18x
seen,
revenues..
##rom
##2009
post-s
##orm
##sales
government-sponsored
antonio
advantage,
assets.
simplified
##quit
multiyear
issuer(s)
flooding
cum
kill
affordability
##arat
rin
subsystems
fhn
(compared
oems,
techniques,
one-month
kp
"do
bpo
127.
##tage
bha
##turn
expenditures;
atms
klein
indexes,
southwestern
corridor
525
rider
pratt
##q0
unde
"hold"
fq1
valuation:
engineer
ashland
beliefs,
"forward-looking
##ofi
312
##fre
##atin
k-
126.
ltm
christ
aggregation
##just
abo
worsen
unchanged,
shorter-term
intercept
(pl
14.5%
dominic
aso
34.7
247
lackluster
##lead
0.85
##a),
38.0
11.1%
##pine
devi
curve,
disclosures.
##uro
goal,
##fully
(11
diagnosed
##vat
mmbtu
##kk
##tain
##osi
lives,
share),
group..
“l
witnessed
suited
##cel
then-
29.1
completes
tranches
.3
airlines,
31.2
improving,
chris,
ant
##sic
##ept
pace,
equaled
4th
28.9
supplier,
pre-re
(ha
jar
30.8
##mod
(tr
climb
##making
wed
welding
fas123r
saying,
comparisons,
npv
granite
thesis:
sale-leaseback
nes
characterization
43,
ecolab
##uy
affinity
dictate
##gre
macy's
error,
bookings,
nil
##sso
vp,
ips
35%,
cana
##atur
##ppe
wages,
technique
seeing,
play,
##get
30.3
kir
thu
nucor
hearings
adherence
11.4%
themes
accessory
2013e
##page
email,
##stra
##hard
tariffs,
couldn't
##lco
11.8%
940
175.
(10%
norm
(loss),
installation,
formulation,
soa
christine
##ustr
##hange
##icing
strengthens
(especially
rg
efficacy,
deconsolidation
builder
logistics,
xto
automation,
##dic
4,1
29.8
(res
progresses
bloom
terminology
erisa
peripherals
1q,
ptc
excitement
adjustable-rate
11.7%
firewall
##than
some,
propose
in-place
short-term,
(bo
##fix
umbrella
36.0
31.3
therein
dickinson
##@j
##call
rating.
##mont
psa
(dec
wri
combined,
hercules
(“a
##pta
hasnâ
fore
high-margin
20.9
czech
##vu
visibility,
##d),
tasks
(“s
stanley.
europe:
##ury
potent
speculate
##zone
teams,
oil-
#2
firmly
##oco
risk:
(va
ddr
encryption
bps,
hemo
##nera
egg
740
instance
pierre
##organ
3,5
re-in
##nne
##long
mwh
kea
rival
spun
items)
caremark
(end
##fold
##ula
##illa
halt
##-j
##iâ
fun
##.s.
railcar
public,
male
postal
modifying
operations:
11/
on-premise
deleverage
##cid
30.4
category.
additive
21.1
village
comps,
planned,
assignments
specified,
##11,
30.2
assays
b.v.
reconciles
debt-
underwriter
transported
technologically
shoe
##&p
compressor
hol
energy-related
144a
annum,
##--private),
re-e
incurs
baa
propel
(sfas
##ulation
wcdma
31.8
##sey
installing
##hoo
rhythm
(si
uncom
'03
residents,
functionality,
finger
##sell
idt
persuasive
fdaâ
##atory
bene
10m
##plo
batch
2007)
lexapro
intrastate
3.25
rejection
1.07
##cla
underperformed
?h
##rent
intake
trauma
ato
abandoned
entitle
##igi
countries;
##dl
least,
remittance
##m),
30.6
accrues
gray
incorrect,
cable,
pcb
rated)
earthquakes,
##ston
geothermal
diligently
canyon
##00,
(non-
supermarkets
0.51
enhancements,
lh
jessica
##zon
lind
arrow
##tn
##rust
abra
gartner
21.4
corporation’s
##ardi
percentile
ora
435
##reat
kap
curious,
277
assets:
andrea
deny
##7/
gra
containerboard
128.
31.7
renegotiate
exchange-traded
early,
##bus
resistant
scientific,
interrupt
mau
welfare
268
revenue-
wednesday,
spacing
discontinuing
unrest
(em
integrates
ment
explosion
columbia,
zu
noninterest-bearing
##/ta
entirety,
scalability
sprint's
lllp
##-ho
ridge
entails
003
universe..
91%
"co
closes
auditing
30.7
equities,
shake
lv
yielded
##lat
upbeat
246
of.
thai
##owi
calculates
stranded
mob
(range
structurally
fre
pest
##rim
"business
our,
continues,
boy
dedication
nurse
retention,
acm
##spi
stories
back-up
attitude
rally
favorable,
provide,
recessionary
qlogic
187
##wb
cibc,
anticipates,â
##co's
(through
producers,
##lity
kro
purported
2q03
vessels,
##nas
##ngs
##dp
reform,
torchmark
cleaner
prospectus,
exxon
representatives,
investigation,
studied
fy1
##vd
taiwan,
jud
##tho
prominent
agrees
owners,
0.54
crops
http://
##due
believes,â
asa
pix
imp
organize
##duction
sing
1.04
trefis
##de,
deteriorate,
1.03
unemployment,
withheld
208
##stein
considerations,
##--w
?royal
spectra
critically
##ogen
o&
##place
##-te
173
incomplete
3q04
171
railway
##flo
##st,
##yp
##ough
programmable
picking,
(16
fq2
##nac
arg
sector:
b&
377
##count
4q02
##hai
##/comp
maritime
kronos
grading
predominately
co-promotion
##gc
downtown
##uci
doctor
20.0%
go,
174
##xp
favorite
prevalent
rowe
##rich
outcome,
##hop
sector.
fdic,
##.a
brokerage,
masco
curves
wh
environments,
cpi
defining
four,
##ulated
##but
##roduct
progressed
banking..
jpmsl
“f
injunctive
fold
254
##tha
incredible
129.
automobiles
##buy
successes
chair
competent
nem
trademark,
(jpmsl)
##rre
upgrades,
manifest
illustrate
##flex
price/mix
computational
shen
collaborations,
directors;
keycorp
advent
genetics
##ised
(diluted)
happen,
ncr
revenue;
241
authorization,
hurricanes,
nan
price-to-book
intensify
##fies
##to-p
extraction
239
##avir
21.8
agn
adv
flooring
factors..
method:
22.3
kat
kumar
gill
durability
##loo
suns
polyethylene
mid-sized
storms
pre-de
non-ma
inexpensive
2009e
founding
##arily
mats
events;
diabetic
##isc
fitzgerald
##-foot
##business
mona
ffo,
66,
malaysia,
people's
airports
rhode
queen's
electricity,
##opo
lauder
shrinking
apo
unspecified
##yse
50m
og
258
replenishment
4,2
##?0%
routers
cross-sell
weather-related
“item
refi
1980
rationalize
ppaca
31.6
271
##os,
##berry
##tick
##tical
joshua
17x
##stro
31.1
vacuum
sig
meh
business-
hurdles
##dose
cone
284
featured
##].
unt
launches,
123,
##interest
rendering
ate
involuntary
23%,
##yan
rituxan
hits
non-i
164
ori
basins
franchising
sup
##ders
4,3
ontario
257
##ssion
##ntal
sund
president-
(assuming
employment,
corporations,
132.
##bot
benign
##ount
tuni
gallagher
##verse
reconsider
shares)
(wa
##nai
bk
32.2
##nsu
(u.s.
outbreak
insight,
truvada
maintain,
eo
44,
42,
32.7
complications
(cal
cablevision
alf
coil
"n
n.v.
##list
peaked
share;
2004.
##umb
recognized,
zions
"v
nevertheless
embrace
coordinated
tracks
stap
25.5
indebtedness;
##/ad
league
hollywood
below),
##ensi
vitro
traders
neutral;
perry
non-regulated
completion,
charged-off
high-volume
private-label
clip
cohen
telecommunications,
##/li
reliably
mid-continent
rese
nets
jpmsl's
string
debtors
30.9
##itive
period-end
stacked
sali
pha
allegedly
c&
mistake
investors'
yearly
##avi
12.4%
shed
pharmaceutical,
bottlers
picks
frees
2q04
0.53
emphasized
##markets
ky
##nke
31.4
##ead
systematic
ec2y
non-v
alloy
houses
##read
03
slows
##kes
##-branded
compress
vinyl
details,
procurement,
miso
cores
251
issuable
##@b
pk
endorsement
2/
revenue.
(currently
##whe
biodiesel
575
12.3%
omi
(u)
ous
nearing
corporate,
##-stage
12.6%
park,
shutdowns
macro-economic
##-use
##/st
seth
helicopter
##-lo
ilec
researchers
impression
turbines
1.06
##eâ
venues
activated
##hem
##-th
rotation
hann
22.7
tenure
##b/
emissions,
pre-a
-5%
soliciting
seating
##ndard
##trust
262
mpsc
deutschland,
negatives
forego
discretion,
131.
realise
satisfying
liquidation,
##ication
quotas
zel
colorectal
unitholders
nona
32.4
well-known
sip
jackups
cip
##grade
##ar,
drain
302
urge
##h's
usda
non-public
2006.
competitor,
144,
activis
pre-c
##trans
context,
(fcf),
##ease
requirement,
afl
sharpe
35.9
skewed
elan
aur
pacific,
sportswear
ste
pointing
##cco
pride
300mm
reu
crediting
imbalance
entrance
stakeholders
(figure
highly-
branches,
cliff
sullivan
##vio
dj
##through
##lose
##r),
windstream
payoff
gf
gears
expedited
11.0%
0.50%
186
##ndi
smoking
##abo
sav
reap
##meter
summer,
berkshire
snap-on
temple
seasoned
rela
transition,
included:
183
avondale
announcement,
177
133.
boli
pigment
farms
4,4
34.2
mmboe
estimated,
photos
1/4
##sor
pmc
lobster
interfere
0.56
orm
draws
kmart
complied
dvr
breath
##rice
##com,
opeb
##inf
33.8
0.58
esop
4q05
##@jefferies.com.
experienced,
22.2
?ne
(gross
11.9%
39.5
##rce
540
##national
prescribing
ede
areas:
(sta
##eve
mixture
##terr
registrant's
deri
copper,
##-for
pollutants
12.2%
##/le
##ncing
##sight
##oâ
2%.
occurrences
##jun
value;
(vii)
time;
appealed
##-g
##yt
acknowledged
tg
deregulation
1990,
sir,
angeles,
•t
ccl
1.08
lagging
dist
preannounce
governor
##ble,
outstanding.
##ness,
transient
"other
presumed
##ents
##mab
truth
interest-rate
supersede
mmcfe
isp
##ution
castle
##nt,
rico,
employee,
gan
months'
32.6
24%,
accountants
deviations
vers
##-50
nx
"pa
fq3
22.4
##itt
##inten
moderation
utility,
tow
greene
anything,
12.7%
thereunder
q/q,
group)
stu
32.8
descriptions
(also
##nte
##kon
prev
coc
22.6
rivers
compa
11x
tee
in-s
mid-year
abbreviations
##volume
conscious
181
267
5:
reno
friday,
bf
##ov
market)
await
mutually
percentage-of-completion
provincial
sir
##rea
pandemic
children's
##-cha
types,
billions
33.6
regime
implementations
##omer
(8)
loyal
hamb
obama
colon
homeland
implicit
(associate)
examined
q-
(together
timberlands
scott,
results:
gigabit
##kh
burger
literature
##/r
isolated
##9/
qsr
"un
wt
tyson
breaches,
##mme
supply-
desi
controllers
##12,
nox
adoption,
catch-up
264
##lth
newly-
credit-related
576,
(past
##mil
259
##icul
nr:
nad
##trol
wang
nj
inducement
32.1
noncurrent
##ior
##evel
##cra
33.7
pfs
diligence,
spin-off,
chemo
epc
ages
301
125.
fueling
(6.
comparables
##icide
single-s
high-pr
##inde
##10%
tdr
promotions,
0.95
domiciled
266
##g-
twenty
##lea
meda
6.00
(22
cs,
##dul
mario
amounts)
dubai,
constitute,
(previously
(des
products..
aml
shouldn't
espn
implantable
baseband
alone,
advertisement,
26.5
##6;
seeds
brewer
##ayment
participants,
8)
31.9
dodge
12-1
##@cariscompany.com
##llow
chiron
mgm
intimate
##ega
##uate
##chu
15.5%
rebounded
.4
##/cons
nisource
##dine
higher-than-expected
underestimate
respectively)
rja
brake
##5%)
##20%
##eric
##amin
##kan
redefine
custodial
176
##-da
nep
significant),
opa
32.3
phase,
##pto
injury,
pipelines,
host,
recoveries,
desks
trace
audiences
period.
circulat
##stati
##rial
non-co
initiation,
cipf
subtract
5,3
##its
##center
repossessed
sales.
alo
meantime,
elizabeth
rounding
ï¿½
##llar
(5%
##bitda
wright
bax
12.8%
##(r),
threaten
dietary
long-distance
affirm
whitney
shre
appreciated
##tiv
vet
13.3%
plumbing
##yx
##dam
##omo
##rib
pw
##ms,
avaya
##ely
stepping
uranium
display,
analysis.
tek
markdown
industry-
157,
pharmacia
million-
inters
debentures,
around,
armstrong
ignore
560
amy
##metri
##ptic
184
##-fu
carlos
cardholder
reed
39,
geographies,
fears
karl
##-cu
•de
##exa
gaps
crisis,
considerations..
##/ac
##aga
shs
secondly
citing
1.85
##-wide
thick
organisation
dte
lum
actual,
##mbi
pilots
##gard
12.0%
##bert
end-markets
phones,
jane
16.5%
##pin
##ry,
bon
colder
sunoco
flush
##tory
mag
expense;
aspen
creditor
different,
comment,
apartments
##-so
pil
portugal
pref
omnicom
##-18
##gui
departments,
insulation
tul
##tere
##sar
som
str
second-
etc.
irrigation
conc
fabricated
unfold
arnold
defe
gabelli
back-to-school
##-a-
coupons
##var
5,5
##inch
199
reacting
137.
sync
cloud,
##fig
wheels
random
agc
##fel
varian
steri
##/bbl
governors
downgrading
diy
chlor
rel
carryover
gm's
(which,
("t
forwards
tighten
held-for-sale
surprisingly
weighed
200-
##se,
incidental
##holder
1m
upwards
time-to-time
auriga
(ms
yi
energ
thor
recorded,
polish
##d's
over,
repair,
lithium
avg.
tw
editorial
value)
appoint
god
true-up
giant
collapse
asthma
1987,
cemetery
combi
cec
(f)
pittsburgh
brian,
non-t
##pul
500.0
##.m
##eck
##boat
##word
178
objective,
38.3
proton
energyâ
##ndl
(expected
##name
##from
##ational
dissolution
limit,
("d
@
non-se
pill
mute
625
inch
operations)
33.4
detrimental
##6m
tria
trade-
291
1.80
class,
tce
##eva
revenue..
intr
succession
alleg
overa
nmr
(average
fios
repatriated
34.6
##gio
comparatively
adr's,
neuros
##sued
hispanic
cob
cleco
##ulti
wendy
##ras
til
ima
assortments
borg
radioshack
##mea
cape
open,
##stream
##orp
inflammation
weisel
gains/losses
formations
transfer,
radioactive
17.5%
##/be
?m
heli
subtracting
submitting
necessity
##play
cov
boutique
813
182
(mm
##r/
##erb
abroad,
145.
1989
##rst
10-1
listeners
(mu
##ality
1.70
barnes
0.49
##ama
29th
##tock
marvel
ase
1.00%
remit
(decrease)
disburse
theatre
compromised
2q05
23.4
##nio
fifty
liabilities;
nonetheless
collaborator
influences
confusion
segment;
##utral
530
40,
##v-
designers
8x
(india)
misleading
##clo
interest:
(pos
cooler
relieve
covered.
ard
brocade
atk
0.57
##istic
##ital
[a
apply,
pockets
degradation
identified,
notes)
##imi
rna
alloys
14th,
##q,
##graphic
occasion
celebr
essence
12.1%
cca
(ri
##/pri
technology;
neal
deliberate
299
##ugu
semiconductor,
272
"sa
detr
134.
re-c
##here
rom
##rease
stressed
majority-owned
cross-default
seventh
informal
##sharing
andr
ameri
warnings
?co
caught
sipc,
originates
vir
50,
##ma,
milestones,
direction,
cross-c
disclosure:
molybdenum
##nol
("h
microelectronics
computing,
forming
swe
##rget
raj
##-80
rems
embar
dynegy
##tting
proportionately
35.3
worried
joe,
costly,
client,
9-1
grumman
expectation,
wcm
fha
brexit
261
calculations,
##eate
requires,
unenforceable
179
##cate
first-out
realisable
##ants
aba
purchasing,
twx
sierra
abr
33.9
at&t's
options..
genworth
ophthalmic
##/l
crossing
â§
contradict
illiquid
##osis
million..
510
telem
##product
xa
bernard
roads
requirements),
34.3
sunrise
research..
admitted
34.8
"pro
##nced
tt
levi
4,6
lynn
##bab
pom
loads
rus
net-
35.4
##zumab
understand,
brac
!
divide
amazon.com
refrigerated
aoci
switzerland)
sehk's
36.6
appliances,
0.64
oth
cranes
278
##nning
conn
insti
recommendation;
32.9
spoken
##million
while,
##-on-
##-k
abbvie
alle
286
206
##,500
(es
yearend
lub
brcm
136.
10k
keen
##tun
rea
hawaiian
non-refundable
sub-s
tole
segmentation
##sys
restricted;
cy12
freight,
214
34.4
challenging,
affiliate,
##mw
criticized
•an
thrombo
quar
201
rab
39.0
deferring
"w
states;
sciences,
pec
monday
austria
victor
kay
ford's
wr
abercrombie
520
##phi
1.16
(dcf),
##esc
crucial
brunswick
##supp
##pher
##rid
aids
##vation
unlocking
renaissance
curtis
ark
stems
138.
##lim
roll-out
##-adjusted
##atu
36.4
4,7
uv
palo
liggett
34.1
concerns;
tun
stamp
outperforms
tribune
operationally
contracts;
rou
reaffirm
re-s
markets:
challenged,
35.6
33.2
##ande
wl
curtailed
imm
##e"
emul
ward
counterparties,
##-we
economies,
interestingly,
brewing
bai
401
##tream
err
biology
##party
trimming
smi
p&
transactions;
•ma
oh,
##inu
proving
engineers,
cameras
##-term
broker-dealer,
1.75%
track,
gru
rises
america's
schwartz
ethical
equitable
elections
0.63
(analyst)
melt
well-established
34.9
akamai
equipment;
##inari
cet1
involved,
comp,
(17
table:
income:
35.2
ang
(ch
pers
vegas,
boosting
hib
harmful
bankatlantic
1,100
duc
##inen
stock-
##gus
##wd
commut
kn
investor,
google's
crews
diff
35.7
sero
yellow
nuv
bristol
bonding
investees
ebitdar
##-not
years)
u.s.-
buy/
andre
##debt
guideline
bruyette
species
greece
debt)
##3m
irish
##lance
##mine
"intend
passes
276
("r
##/en
[data\utable\uremoved\u3
30-year
1q06
(24
levels;
reorganized
non-traditional
merit,
saf
tons,
serve,
jd
customization
tailor
##viso
brin
trx
therapeutics,
t-mobile
flying
dave,
nomura
fiber-
inadvertent
"fa
##lite
##dur
cdos
143.
reviews,
##-to-ma
##bru
work-
##-mar
##eci
wanting
migrating
hoo
##erman
jci
##att
veter
country-
trended
referencing
##.d
rate/
287
stall
ability,
retrospectively
##tinib
##rade
##price
subcutaneous
##nth
##yde
research's
lowe
282
(high
(their)
points)
1978
mid-201
(ge
##opti
companies"
relocate
288
23.1
institution's
##ember
environmentally
142.
foremost
##ato
liquef
36.7
remarkable
les
##nsi
insert
13.6%
scoring
covan
reconciled
embed
##ows
##hole
##enc
hil
4qj,
elements,
alt-a
employees;
trap
skills,
(roughly
ita
6:
##rove
delaware,
break-even
attended
ats
supply/demand
sunday
investors:
litigation;
worldcom
accomplishments
1500
(exc
##roll
gypsum
series,
sidelines
revolution
nic
13.4%
rejected
##],
stockholders’
refurbishment
plans,â
comverse
nsp
##nci
supervalu
mx
combo
##ttle
tif
nerve
coin
ara
family,
accreted
"plan
wherever
##ison
bou
##”,
(ass
unacceptable
sixt
michel
##fee
activities:
9/
##management
retroactively
51,
##ln
lid
genco
##poo
(s&p
non-employee
component,
u.s.-based
prod
shippers
last,
invent
##aire
sus
1.14
##-price
##uli
available;
mcn
##ffer
1.13
spans
##rri
termination,
sticking
##scop
"me
form,
273
(wh
##-tra
forget
compli
tur
advancements
##sat
dilut
##50%
tyc
##aria
cia
30th,
13.7%
?i
##-rate
quantified
mpu
36.9
0.61
313
rica
##xc
##tore
he's
earnings;
nearest
maybe,
1q08
fla
taxes;
##ffi
networking,
heavier
gai
mac's
longer-term,
##-focused
post-m
##nat
##vor
##prise
ol
283
malfunction
bln
(sc
ericsson
hig
hem
autoimmune
##abe
3q05
289
johnson,
##vit
##tru
emb
trouble
##zan
spon
strides
##andard
services.
complexities
goodrich
protracted
(cnmv)
supposed
non-comp
early-stage
garr
prevalence
##stan
tuesday
debt/equity
36.1
"bu
influencing
##%.
ath
##cope
non-n
jefferies,
##mode
##field,
mobil
clock
##backs
emphasizing
10b
##ll,
subsidiariesâ
losses)
jack-up
vinci
swift
acet
35.8
“in
cole
multi-s
metabolic
##venue
additions,
nk
1.18
synchron
ske
bert
nonoperating
monotherapy
transferable
noc
##illion
counsel,
scripps
##generation
hg
(18
##ically
disposing
47,
207
(op
cq
##l),
##ficant
panama
37.2
lande
kwh
4q06
osteo
##50,000
36.8
sub-a
chrom
##ces
price-to-
pre-pa
##u)
cag
13.2%
1.17
sheets,
35.1
ix
4,0
specializing
(usd)
##pas
(abn
sga
##ulos
55555
37.8
project,â
honest
##uts
khan
hhs
##enta
seq
fes
hess
##acy
unis
revenue:
outperformer
centraliz
##sign
(gain)
randomized,
##'t
lucas
slowdown,
airt
steak
sank
configurations
hold/neutral,
37.4
##olu
may.
##pped
##iq
bird
alarm
##oil
examining
deliverable
asia:
292
reactions
etr
ssb
eu,
dislocation
1.37
bucket
14.3%
##than-expected
incorporation,
isc
troy
##9m
##esi
underperformer
conocophillips
peo
zh
28.5
soci
poorâ
verdict
caller
'15
20m
quarterly,
-6
vod
##on's
coe
"res
tactics
proposing
simul
enjoys
0.00%
humans
rosen
resp
mcc
interview
michael,
wfc
not-rated/hold
hire,
##lines
conservatism
bend
univision
shorten
ncos
gras
craig-hallum
tas
color,
##ify
accidental
##gati
##lecti
s.v.,
yard
drug-eluting
##fra
(ip
materialize,
fragrances
friends
contributions,
nonre
mca
hba
##wt
run,
walker
index..
consumers'
unsubordinated
seng
##nx
e&
##-l
9.
03-
bench
slow-
bos
2011-0
facility)
ud
iot
lb
licensure
(operating
##evi
rug
mid-t
annuities,
inso
gran
##orti
prov
304
commerce,
barges
##onn
concluding
##arm
##valent
outpacing
rib
bron
##oto
high-risk
centric
##erform
pre-f
collections,
methane
dia
##-ce
were,
streamlined
customer’s
##enz
##emp
region:
("w
##stimate
non-c
##-manage
tyler
mbna
mg/
1.01
relevance
##rain
tissues
385
139.
##-201
rene
ccu
scs
0.68
##fication
lars
poor's.
appearance
harvey
##w.
##arch
00
anthem
tailwinds
intends,â
copyrights,
160.
##ange
adjusted,
vt
316
##raft
##md
##trop
fronts
37.9
##urchase
##rack
sued
denver
##etal
(cap
gaapâ
fourth,
afr
dn
believes,
##-car
criterion
libor,
##first
##-16
allocation,
##merge
beijing
dnb
36.3
documented
current-
##note
##esse
stability,
##8m
##was
verisign
infringement,
noncon
mul
2q0
overhead,
solvent
lower-margin
##charge
##aud
taxable-equivalent
tops
simplifying
earned,
1.09
mod
banker
##ipat
##/k
coli
raf
##blin
##ower
ratio;
days'
cns
placebo-controlled
ph.d.
outbound
myself
3b
2003.
##/inter
handi
surpassed
apt
differentiator
##-lived
##2000
##/ca
motorcycle
assumptions:
##");
breaks
pun
36.2
"le
spread,
morning's
##tential
instructions]
##um,
tract
deserves
conagra
13.8%
micro-
did,
(cm
developmental
biomarker
achieved,
on-balance
officially
500;
neutrali
acqui
gener
144.
anecdotal
41,
fuji
*an
hbo
##expense
imme
echostar
therapies,
reactor
lifted
"pre
late-
dispersion
##otr
##ily
slipped
##nco
cy11
336
kos
rov
fixed,
##-comp
pts
arbitrage,
revealed
(ibc)
?fundamental
geared
chains,
ez
drug-
4,8
(23
calpine
bode
1.90
##fecti
##aki
roofing
##tronics
kinase
##hot
0.72
subpoena
muni
unl
233742,
10-q.
fabrics
exchanges,
stockholders;
scanning
##burs
##onal
##hme
sym
2011-
posi
high-single
invoices
chart,
shaping
cope
refrain
corporation.
bee
12.9%
##cti
nominating
meals
##gaap
200008434h),
(c):
wre
chest
northeastern
shrinkage
settings
benefitted
biz
netted
mississippi,
sut
##tainment
##qualified
##er-
1,000,000
##-end
oklahoma,
distributed,
arl
269
bioth
s:
0.66
1.28
twe
als
##rap
onset
(out
##ked
dys
sps
?ca
(7.
omega
evi
google,
x-
##.h
##liv
eas
##hill
exercising
eth
16.7%
conduct,
axp
(includes
##occ
misappropriate
qi
##nan
broker-dealers
1/
##-ve
competency
##watt
ever,
##order
underweight..
architectures
radios
(i):
tennessee,
recovers
##dated
##lus
sonic
contents);
##row
does,
##-00
abbreviations:
281
jefferson
##sg
administrators
penetration,
arn
##pse
nn
fac
777
claimants
zal
outlines
amortizable
##ogra
ivan
(20%
718
35,000
licensees,
winding
authority's
(bafin);
rescission
elects
##world
dest
overweight/buy
bolt-on
##-el
##cio
obesity
90-day
gild
##state
38.2
life-
brady
400m
sbic
##&s
subsequently,
gut
##-ha
data;
##erson
sapien
substances,
37.6
##orce
tia
replenish
##pâ
impartial,
("cs")
talks
##4m
(like
20-year
##lid
form..
asbestos-related
pharmaco
invention
disp
(known
seemingly
cet
centerpoint
capita
runway
firstly,
compressed
(ir)
##cense
honestly
##pie
svs--subordinate
1.27
levels..
unf
37.7
results..
roll-
agreements;
nvs--non-voting
ebay's
fx,
gathered
integrated,
disputes,
end-of-
distort
countrywide
laws;
defi
already,
alcatel
##hat
java
viruses
pala
downside,
intrusion
37.1
estimate)
augmented
openings,
coa
freestanding
##lee
finalizing
mida
enact
catheters
13.1%
lim
##@m
schedules,
accelerates
poland
0.59
##eral
hack
phenomenon
hoffman
curr
##fire
##/di
instability,
hus
geographically,
mstl
alabama,
##6/
(nasdaq:
outperform/buy*
dial-
breakfast
(sh
##tâ
##clusive
dougherty
(qfc
(vs
##start
(difc
above.)
##amp
pati
2723
##sec
idea"
swan
machines,
##a")
##lac
manage,
[s
##ateg
vioxx
stricter
communicating
(though
russ
p-
finishes
blade
##build
impartial
headwinds,
(incl
staggered
amortization)
1.26
quickbooks
period)
##eld
perform:
blind
141.
enthusiastic
passengers
node
ffelp
saves
chem
luck
tooth
clearwire
firstrand
##sum
dfsa),
reta
companies/instruments
38.6
37.3
leu
qfcra),
##-r
uneven
outst
differentiating
antid
mm,
aco
alzheimer's
contend
apple,
(fiscal
samuel
45,
##rsi
37.5
##mini
christi
1b.
financials,
##toc
datacenter
attaining
slip
gannett
ebv
tightly
overvalued,
magic
coding
borrowerâ
postpone
4q9
12-24
##sche
self-storage
ria
##arnings
migraine
diode
555,
animals
147.
("sehk"),
sarah
##stand
noteworthy
maa
biopharma
##.gov
foreign-
##centric
upc
resellers,
tablets,
realign
missouri,
keefe,
pathogen
lingering
(int
treasury,
boss
revenues;
tolerated
non-d
decides
(31
##urance
dfsa
(a):
entityâ
##owe
chand
arkansas,
make-whole
source,
bbby
woo
shel
kilowatt
outages,
364
actuaries
0.67
##gia
297
colle
4,9
(dfsa)
marty
506551,
expenses.
##-2.
-5
clec
##nz
38.4
2-3%
colors
##ses
plavix
26%,
("cibc"),
##nv
##titi
lamb
valero
decorative
changes;
##pel
kentucky,
thursday
super-
analyses,
bapepam
act)
reconfigur
##opr
inhal
'9
specializes
thoughtful
jeans
##½
metals,
##q)
upr
thc
amm
israeli
32,
##bili
www.morganstanley.com/researchdisclosures,
price/sales
jc
##ffiliate
performed,
contributors:
leather
denim
##-h
h-shares,
rate;
[v]:
theatres
morbidity
(r):
wolfcamp
##kar
##bol
-.
insur
.6
schneider
non-client
hoped
384
##t),
##hire
reevaluate
qep
carriage
gol
000
solv
##tid
alic
property;
eno
trusted
rvs--restricted
concentrates
connectors
##thin
490
less-
equifax
histories,
universe*
(ep
laptop
311
stock)
losses;
http://www.csfb.com/research-and-analytics/disclaimer/managing\uconflicts\udisclaimer.html
box,
minnesota,
q1:
39.2
##ners
rite
quantifi
7:
neurological
mediat
mueller
slowdowns
districts
2003)
resol
payback
expo
##fm
orlando
##ps,
election,
arp
nava
nflx
##/ind
##jud
##ey,
explicit
149.
analysts..
##-m
1983
pem
monitored,
background,
296
lessor
hes
bw
##lien
topix;
(ow
##amb
harde
categori
298
##vide
-0.
co-pay
b/
idea."
carpet
paccar
199206298z)
and/
laur
build,
cpu
("sehk")'s
gms
paperboard
##-market
##site
coast,
39.1
amgen's
knock
diameter
##erial
corrugated
##.asp
disney's
defenses
##ppro
unproved
##/con
safer
closed-end
equal-weight/hold
405
budgets,
##f.
##/exp
##rro
excel
equat
##lear
3,500
cssu
intense,
293
sanmina
framework,
"sta
flights
40.5
wins,
##has
novellus
anti-money
14.6%
14.2%
wic
nurses
lineup
gent
(mb
transforming
stanley's
323
nonf
compe
colleges
books,
parkinson
in:
fir
cus
##nds
photograph
f4q0
attention:
thro
##now
##inve
volume-
invi
harrison
14.4%
middleware
internally,
emm
27%,
##h.
ata
renamed
cypress
shift,
##1m
##iza
tommy
52,
shoot
##weighted
##research.com
large-
##-mc
atripla
##iro
39.9
jn
multi-b
##kle
neutral/hold*
##cepti
symp
processors,
bes
(pc
##rem
finds
alt
mcca
concern,
regener
data-
hedging,
reconciling
decelerate
bni
middle-market
##earnings
b2b
spots
(cf),
3.75
##-he
idc
corr
010675237
200m
##str
gathering,
meli
##rle
indicators,
##ae
pent
hydrocarbons
frederick
subjected
acuity
(gi
##pf
kno
atom
store-
cobalt
42.5
walking
##ge,
##cycli
shaw
##sho
express,
3-d
worldâ
jin
##mul
cub
##unch
4q07
opp
lags
desktops
shad
146.
##how
##reg
epic
##/y
measurement,
("u
removes
810
surgery,
premarket
##30,
gall
to-
butler
21st
13.9%
1.95
kfc
noninvestment
enl
includes:
##oft
bnp
amenities
accord
seasonal,
##06,
drop-
##series
##ete
zar
pepco
net)
adj.
gmac
vive
nigeria
tribe
billboard
(no.
terrestrial
attests
non-japan
##rai
wallet
ellen
##cos
##case
retransmission
irre
##-through
##yment
##iment
nik
bun
u-
##c")
astr
jean
##-private),
west,
iti
vermont
hereof,
need,
trump
148.
##nou
coors
admit
hello,
bree
##ife
##awa
(more
tanker
gis
cac
inc.)
duncan
.7
##-ta
“n
ourâ
argentine
high-value
formulary
165.
portfolio;
advocate
turner
quiet
mayo
blocke
767
640
nabors
##ined
##hap
14.7%
(revised
osteoporosis
dum
we,â
(case
##sant
38.7
25m
##quin
"po
browser
reorganization,
impa
308
liabilities:
executives,
##exchange
30th
escalating
##estr
##control
possibilities
##01,
nordic
##sul
shutt
##nut
environment;
p/b
granular
32.5
##versa
ipr&d
1982
##olla
(company
nearby
##la,
cambridge
anna
thal
sgp
brink
retirements
bags
appalachian
##odo
underperform/sell*
cervical
sad
##mploy
5,1
view:
ris
myriad
pleasant
35,
tv,
og&e
18.5%
obligations;
bear,
prof
unions,
terms;
barc
sums
speech
luc
endeavors
(fd
##\u\u\u
jsl
technicians
underperforms
acr
contribution,
##nish
##bea
destocking
0.0
thirty
dayrate
##total
##pert
dv
##serve
cmp
reits,
formulas
lau
bhd.,
(oc
(da
##tig
##sci
opti
(is
gal
cen
[t
##rah
300-
four-family
38.1
##rec
enterprise-wide
mills,
heal
##mas
post-ac
p/cf,
5,2
##4/
m&a,
tsys
results.
healthier
##financial
kcs
jurisdictions..
triggers
##pal
##haring
copa
"for
upheld
38.8
tweak
shortages,
sabre
##cover
government's
ans
##wl
snapshot
priceline
(common
subl
amex
##imo
salaried
dialing
clients*.
flattening
bargain
294
##wner
poses
1-2
##iminat
##(e
securities-related:
analyzer
##atch
myeloma
carlo
colleagues
kenn
11,000
##hine
stellar
calc
##etr
program;
sms
orally
1.22
##ecu
1.23
simultaneous
recordkeeping
##wards
75,000
("o
##/ga
bang
13.0%
6,5
##rot
witter
epogen
belgium
##ups
post-p
(bp
habits
41.5
1988
ssd
captures
(ju
1.24
##umo
delinquencies,
155.
##lux
sulf
antibiotic
##gage
aff
##network
eng
answering
liner
##/u
quarter.
consistent,
307
##urren
009
##7m
rebates,
cira
weyerhaeuser
autozone
matt,
lyons
interoperability
regionally
ordinances
energy-
schu
third-parties
clients:
dhr
after-tax)
tide
toshiba
properties;
astellas
hur
1.11
c2
dtc
contemplate
toxicity
e.u.
assists
219
http://www.op
toushika)
anders
##cas
expense.
respondents
housing,
competitors'
##p),
15th
moha
freely
percentage,
laminate
publisher
##.j
##uck
melanoma
/s
(51
##ony
##a/
660
##itical
##eit
spra
eh
allege
moni
l-3
212.
tandem
rhi
##hit
##ining
alto
insolvent
##tility
restate
##body
unin
28%,
“se
dbsi
5%-
##8\ulines]
##apa
defaults,
##uid
##aliz
bandra
328
explosive
##,000,000
##enberg
transc
##y.
solidly
japanese,
describing
urology
321
underp
moratorium
oa
170.
##rad
divestment
(dep
##-br
works,
efficient,
tendered
levy
achieves
investab
disciplines
(8.
resultant
80,000
14.8%
algorithm
##coc
creat
facility;
sof
rex
preserving
high-de
steering
estimates,â
##rsa
309
nondeductible
##kat
capstone
##rang
##assi
robust,
ownership:
confirming
backbone
quarter-
safeco
detected
pre-market
bancshares
expand,
fabricat
uh
thailand,
counting
##tant
pro-
tall
more-likely-than-not
306
sensing
corrected
70,000
##u-
**the
mcco
bubble
anomal
wol
viread
arise,
ryder
applicability
myl
boul
buc
##urrency
##(c)
##itis
vis-
##ware,
trad
3-5
##liti
##two
ist
fractional
"will
glaxosmithkline
##-pla
servicers
bypass
gree
divesting
##fined
sacrific
151.
geoff
pe/growth,
##ledge
##fp
sp:
heco
("j
cables
326
(expressed
##gma
interl
alliances,
2021,
protest
212-
##eth
trac
580
##/service
(strong
pou
s&p,
##iced
lev
##quality
##lys
intentional
families,
ablation
operations.
f/x
##cie
•e
ws'
severance,
3q08
elsewhere,
##rs)
seizure
growth),
dell,
benchmark**:
##ly-
project-
disapp
##phos
misstatements
wea
resumed
price/earnings
price)
genomic
##ign
tended
frames
acce
transformational
administering
##lua
tertiary
##re,
wpl
ford,
privately-held
##ulo
medtronic's
368
income;
growth:
216
##oda
2011:
expectations;
cow
###
mir
pancreatic
northland
misst
d'
1.32
tot
##dom
##urgery
intermediate-term
##gm
upl
2014-
##erio
loose
lease-up
##bec
bioc
12/31/
boiler
phillips
peaks
##ede
fulfilling
152.
##essi
ket
cans
reasons:
[data\utable\uremoved\u
##rson
proceeding,
teg
317
##-reg
spar
scaled
pheno
bny
produce,
2.20
shoppe
logistical
cash/
biomet
##/11
975
jer
berg
yang
lot,
##-pre
##rag
voyage
newport
2011..
warren
huang
slb
amazing
walgreen
estimate..
verizon's
pre-e
##/ton
##ruc
?2011
1q07
cjs
compensates
2005)
js
cdn
##dde
superfund
broker/dealer
##times
##rvice
transporting
##tribut
##mission
inventor
bahama
##idge
convenience,
##hman
hyatt
2.15
incoming
##lities
malignan
dollars)
yan
##ller
situated
equip
radio,
gov
go-forward
lunch
##cure
##omet
debo
rubbermaid
nashville
impe
conceptual
##etition
airborne
gmv
age,
denotes
pre-existing
(cor
fashion,
rup
cintas
##nsity
illumina
##nter
##eut
q/q)
5.50
deposition
wid
14.1%
puri
invoiced
##pid
nitr
##usion
vibra
hai
l.l.c.,
39.3
##arb
15.6%
prom
armed
14.9%
03/
calcium
spir
risk;
##ancer
cpp
ios
##eep
##nce,
##yâ
##ias
55.0
##lud
price..
##edit
acu
•g
offering)
receivers
2013-
atc
interrupted
syk
rockies
reinvesting
defects,
provinces
tp:
sandoz
0.87
sourcing,
synagis
geophysical
31.5
##ls,
prosecuting
motivated
generations
co-investment
china's
38.9
terex
##2\ulines]
relapsed
hike
gly
oci
embra
brun
15.4%
1h1
sec's
2010..
##/12
discusses
debt/total
##public
hans
sun's
reclassifications
localized
##et,
outsized
sandisk
jefco
butter
##dn
209
ure
outlier
tentative
motions
400.0
points:
concerned,
39.6
multi-channel
merc
revenue/
out-of-pocket
un-
##log
##kos
unit's
suv
tgt
self-service
##perat
audits,
##sman
pare
"sh
##eration
##ivi
•i
aci
blending
##g),
coventry
5,7
##-wi
merely
is.
(-)
sul
(million
##df
ano
ultrasound
consoles
##ä
vac
originations,
interme
helicopters
•pro
##&c
##20,
338
pret
novell
hin
##ent,
cosmetics
[c
payments;
roberts
motorcycles
1.36
plum
footwear,
eea,
##front
internet-
ank
broadline
570
##goods
third-
cma
overrid
##rci
solectron
selection,
microsystems
42.0
2.40
energize
casey
##-tax
##termined
##downs
gas-
0.77
vant
myelo
##rran
add,
alk
tale
##atr
stanley"
biomass
198
##employ
repa
multi-l
liquidating
(that
'b
off-balance-sheet
##digit
ambulatory
(dollar
osh
diss
successive
mai
byr
0.76
n:
##vest
##rw
importation
teen
harley-davidson
1,300
colonial
attachment
potter
##rod
deed
consumption,
statements)
ful
atrial
(higher
hsd
153.
##lio
fee-for-service
(ann
cured
9,000
sequestration
meyer
association;
##anu
mea
##global
eyes
conta
total)
bleach
80.0
331
1.33
(z
schw
353
simplification
connector
sak
review.
##ntr
##arti
specifications,
smallest
##gers
483
160,
interc
(m):
##-mi
retr
attest
cabinet
flumist
aluminum,
##bn,
commission;
ner
setbacks
innovator
claims;
##ley,
in.
neutrals
##lop
wilmington
##agu
declined,
##inter
##-sta
scar
[data\utable\uremoved\u4
##oci
##nite
quotation
differed
3q02
conve
deliveries,
15.1%
trains
##diat
##-down
##tern
derek
nont
lr
##sable
##ervice
(mn)
49,
(vo
prediction
operates,
##elec
kingdom:
kimberly
forge
chin
(15%
);
"ex
s-3
reject
wellhead
prosecute
compounds,
workers’
reinsured
2.25%
mall,
##working
relax
0.0%
##elated
("l
weighing
conce
blocking
0.74
cano
gib
sessions
##ique
merging
##-70
clay
classes,
everywhere
qa
0.71
##-at
executive,
##tit
##ifying
m-
dbsi's
##ways
discr
##past
##coll
##ergy
time-consuming,
plans;
il-
##boro
non-ex
##olis
##gp
41.0
##omy
2008.
##@sec.natixis.com
investee
wip
unders
surf
diagnostics,
fung
bread
##-go
reservations
recalls,
##nnial
salon
impacted,
fpga
395
acquisition;
##uter
211
cod
##rian
perform;
multi-m
##sale
possesses
attention,
sept.
hubs
heate
converged
39.8
exploitation
anti-corruption
##dyne
pro-rata
determined,
[m
5,4
week's
started,
psi
##4\ulines]
##-release
##scri
decentralized
liabilities)
outcomes,
vein
vacancies
cata
##-the-
nebraska
specification
tba
pronouncement
##equ
preneed
##iam
macau,
compil
70.0
##keeping
##3%)
realizability
##nga
esc
fcx
omx
artist
##ilt
##-hour
wee
compatibility
15.0%
usf
d-
aware,
empire
interm
##ectr
surgeon
scanner
39.7
##15,
##da,
motorola's
queens
(inter
0.78
wide-
reass
long,
foam
(3%
acquisitions)
140,
period;
drivers:
##uz
##ope
##deo
unconditionally
dcf-
bind
cfc
mail,
15.8%
maxval
"normal
clint
disputed
1.38
805
0.73
##sph
##hia
insi
1,400
rwa
arose
##aca
(40
(26
minneapolis,
clinical,
?012
mig
metaboli
##h.com
lun
frx
aligning
##ed)
rega
27.2
uss
salad
ensures
hatch
labeled
##ta,
cy20
##wk
layout
grade,
reti
phoenix,
(incl.
sant
property-casualty
slots
virt
tus
indication,
hamp
(cf
uspto
bioscience
##eff
dayton
complies
suspending
floods,
decker
##amax
cele
roundup
surviving
impacts,
15.2%
##02,
mcafee
precautions
repayments,
##hie
##anne
attainment
##ine,
survive
landfills
discontinuance
##liant
##dell
randall
39.4
uri
bem
joa
climate,
acq
##aus
-7
broadened
regional,
instructions].
jurisdiction,
##you
excl
air,
take-o
##uto
rece
formula:
client/non-
revenues:
aye
##sation
240813,
underfunded
##fil
nonregulated
pads
baking
1,25
designations
forwarding
feedstocks
amplifiers
notion
alg
defined,
##rta
##ogie
##vera
radiology
no-
commissioning
154.
tens
ref
moi
cbo
quarters..
620
redundancy
borne
amin
##ild
cattle
nih
partnersâ
leonard
##derm
homebuilders
deduct
##lera
mcr
from:
climbed
##pack
¹target
ests
##km
norfolk
interpublic
fier
3-4%
##enic
pal
ftt
carve
us-
qualcomm's
lapping
fy03
jul
colla
##ben
0.69
##30/
kf
bacterial
##quis
fil
avionics
multipl
backlogs
##7\ulines]
##-ga
30m
156.
##mâ
##/te
speed,
162.
##-ed
1989,
cass
organi
dimension
##31/
##hre
ev-
##:2
##pir
guarantee,
stipulation
molding
gl
##tto
5,6
##sett
##ifi
justifi
eq
deci
york).
decelerated
*relevant
option-pricing
airways
##ines
##cular
mtv
ges
avery
##s's
amort
nobody
back-office
5m
50/50
##-dr
montreal,
(ga
intensified
gmp
dale
metrology
ebv,
remi
tornado
3),
1q02
##sburg
ovarian
katz
indemnities
ought
elm
cine
unlawful
##ination
##asc
filer
(4%
##/j
range.
sri
##ing.com
cars,
interpreti
##hea
institution’s
denmark
tau
herb
policies;
obligate
architect
40.2
##gee
congress,
314
##iar
assisting
bps)
nonst
(80
##/mcf
##-ra
curt
substrate
2007.
loaned
2016-1
sex
unsolicited
rebuilding
label,
##eder
unilever
##techn
negligence
##-rich
omnic
p/fcf,
stephens,
fringe
shav
217
resignation
"company")
?0
65.0
sell.
(sl
pre-co
##chin
conse
westin
9:
2026
(1,
cyber-attacks
donnell
##sa)
defibrillator
##/me
upt
(av
vacated
horton
(sou
##alu
resorts,
1,600
skeptical
15-20%
arranged
1.29
"new
subsidiaries;
apd
4,5
750,000
(tw
##ulin
advisory,
customize
324
##isco
gap,
##xamin
purposes;
##bati
duration,
bye
2q08
2008)
carbonate
(6%
jets
##ndr
##fort
##hur
rip
authentic
##sa,
showcase
refinancings
"neutral"
##-state
322
##-control
proge
overb
##ter,
##lution
centrally
quintile
(technical
broadcasters
registered,
disclaimers
3x
best,
##hour
imminent
ccr
elu
publishes
demands,
(pre-
##i),
##factur
bab
year),
prest
loanâ
##fcf
consider,
closed,
?0-15%)
##rter
1.19
##mpl
loan-
coms
one's
initially,
tells
sensi
harbors
envi
twin
benchmark;
ascend
nord
newc
##aye
ready-to-
##ressi
pseg
agreed-upon
pepper
inhibitor,
##-60
##cis
##toni
transco
##nche
authors
coh
architecture,
##shing
##pect
##ns,
pertain
kings
1.50%
after-
53,
fallo
off-price
escalate
cran
cohe
nasd,
cy10
ii)
(cira)
bolstered
##08,
resourcesâ
fulle
cftc
request,
##cad
convergys
associations,
uninten
football
r&m
approval;
f2
stran
kam
functioning
pound,
##that
female
auto,
ties
non-pa
in-service
157.
wrapp
impu
light,
"cont
(telephone
chemical,
qt
irb
cost-saving
transa
open-label
alfa
43.5
##199
##idin
blake
##andr
##aba
eckerd
finance/investment
products:
problem,
##phage
mine,
##visc
non-li
anc
##scale
##liver
##enabled
centurytel
15.3%
##bile
substitutes
non-qualified
dec-
bearish
##reported
flatten
"as
one-to-four
##2.5
##whi
loss-
327
##ounced
##ures
segment’s
dcp
record-
occasions
nhl
##011
grat
genome
0.75%
##/lb
telecom,
gold,
##ccur
watche
articulated
##-sponsored
##ggre
##atal
inc;
##ke,
reallocate
2.10
##nix
stockpile
recreation
##----
schr
##thy
debt/
125.0
##(a)(
advantages,
subtotal
2q06
strategists'
##r"
(increase
mn)
c.v.
##rts
revi
nonbank
##ww
perfectly
dvn
##.th
##tb
indianapolis
(trans
vit
flaw
##anes
fran
##dal
cabinets
bonuses,
(cp
swo
##mad
2.60
150.
non-profit
lender,
hypo
ex.
cercla
##ection
npd
end-use
##ced
jai
territories,
sclerosis
prolo
28-
##half
stoppage
core,
patient's
vary,
hardlines
40.3
383
isr
aeg
bhd,
correctly,
##orth
##equi
lengths
fortunate
income-
##to-m
lock-
0.82
##luen
npls
vita
rotat
cessna
54,
duties,
40.6
##dro
vn
outsourcing,
(50%
painewebber
case-by-case
pre-approved
evere
succeeding
180.
15.7%
drinking
zio
pag
bgc
away,
philips
##oce
risks;
##tial
prevents
9x
economical
interferon
##mac
##erti
a-b
##vance
337
##oral
##rix
schizophrenia
(rat
fal
##mou
mps
indig
##/cas
##sect
items.
workforce,
##virus
##abi
##spec
snd
pse&g
57,
presidential
158.
pea
others:
##gli
rbocs
instruct
f1q0
172.
##-fa
wen
fortunately
hitachi
gui
pars
##tria
##sville
comp-store
41.7
##harma
preferential
##banking
uses,
##/9
##hag
##ercial
##25,
gale
occupy
companies:
mus
conseco
##sky
##pmorgan.com
kre
cvc
##percent
cummins
##d"
##clear
nonc
maria
mathematical
hotel,
##oal
##dynamic
10:
##8%)
deadlines
yar
router
indemnified
tear
1.5b
waive
bottomed
reception
lyondell
nfl
flat-rolled
analysts;
##-sa
tiers
##/q
polyc
mindful
gec
exe
?an
encore
monday,
##chip
non-ta
##9,000,
##focused
332
##igen
218
information..
destinations
##td
##ositi
pico
seabo
adcetris
speaker
2010;
teles
nonm
idi
helpful,
delineat
trusts,
pre-p
g-
inclined
2006)
1-4
(gics)
skyw
sang
##cs,
159.
nicol
alp
rev.
developers,
##stage
##ago
lympho
estimable
hours,
regency
church
slipp
belgium,
rollover
household,
##-ass
nonfinancial
(ie
ack
##/la
##--s
dan,
back-
##oline
dependent,
odm
multi-d
eat
1970
sol
suba
##/share,
##m/
growers
##upt
remo
ltc
beh
##licens
##ilo
##kr
norway
tels
thereon
(stock
##mix
demand;
seven-year
brendan
aud
lenses
(sales
transparency,
##isten
implements
chk
non-voting
41.2
##italiz
memphis
companiesâ
4-6
2.30
pho
deca
##ois
##las
##rda
meth
14-1
##erat
kw
##ciat
ocf
harr
earnings)
www.morganstanley.com/researchdisclosures
university,
blank
cant
630
hardl
securitize
slow,
sally
##quantitative
deriving
1,05
trib
tren
teradata
smokeless
barn
##90,
vik
statements.
dive
substrates
commitment,
3-4
##ids
crowd
belong
bros.,
##nni
352
##hp
##ending
funnel
(nr)
fel
##hares
##gâ
tricare
##matic
partnershipâ
##orati
collision
aesthetic
##efi
##baum
349
retriev
manager..
225.
##fect
pre-pro
interval
northcoast
##nent
passion
improperly
wer
questar
pod
deeply
##matrix
##/dis
off-t
##ds,
calvin
16.4%
telef
erc
murray,
##erf
##cqu
##deliver
vehicle,
then-current
debtor
343
function,
##suit
##mall
prp
445
##div
##bee
commoditiz
abate
300m
torr
legislature
writer
market.
##2006
low-single
ens
seque
exclusions
tran
##ict
modify,
t-cell
merchandising,
cis
reversing
pertinent
34.5
non-fu
(8%
segmented
##normal
hemisphere
grab
h&r
##ia)
amg
##-to-d
##-ins
svp,
earnout
alleges
williston
departures
wis
territory,
subse
dream
irrevocable
on-t
inc.â
40.4
/-
##coo
teaching
orion
fitting
drugstore
underli
##gniz
search,
bleeding
firm:
##/disclosures
double-digits
michelle
d&
tourism
axis
##moving
conforming
##/ho
flags
awe
150m
ibx
##uv
distress
##tep
repos
80-
##customer
five,
c200
hazard
half-
guil
53rd
344
(ni
cmo
nanometer
emea,
14.0%
##forming
witness
expedi
whilst
milling
profitability;
rew
(imp
loews
1988,
##uma
beverages,
1.21
##à
cio
dsi
prices.
petitions
##6\ulines]
theaters
16.3%
##cy,
rebrand
continue,â
860
vince
nash
market-mak
utility's
(xi
saturday
intermediates
hex
##ille
675
growth/value,
cala
summari
taste
portland
##reco
##erger
pfizer's
etf
geography,
562
distribute,
64,
43.0
tha
coordinating
eps:
##hra
diego,
##makers
hea
cooking
7)
##electr
29%,
unwind
##aq
pain,
319
abu
##ssem
##oran
investigative
(35
##consensus
eso
##b),
widen
thinks
conservator
chr
16.2%
testament
cruises
##/ins
standards;
rochester
appr
("gics")
royalty-
opto
rigid
##struct
##rgy
##cript
##building
fps
##dvis
writedowns
contacted
ballpark
2.35
##fic
scarc
circ
##age,
leukemia
first-line
##rvi
mcle
kinder
connecticut,
mid-s
clot
0-
##vers
resuming
mso
celebrat
circumvented
##right
renovate
nws
kv
2014-09
1.42
fires,
##-hi
wal-mart's
saa
regulators"
ceases
service-
pul
##pend
##mitted
163.
(ev
##aul
broke
bipolar
60,
40.7
##-is
rami
built-in
40.1
congestion
(28
(27
multis
navigat
infrequent
##osa
sounded
insulat
16.6%
forward-
(cash
##.p
dissi
eps-
(hi
poster
##n),
neck
##cac
spray
##yme
asset-
conde
serial
penetrating
airplanes
initiations
##mid
chocolate
boot
350,000
##@credit-suisse.com.
##/so
werenâ
dian
1/1
161.
##qu
hostile
##cond
56,
usâ
negligible
633
##iest
apprecia
f-1
##-inc
##erie
depot,
"li
##cen
delighted
##uting
particularly,
##pose
##loss)
paradigm
(cc
invesco
blades
?su
bass
##nanometer
##denominated
metering
cellulos
##3\ulines]
respects,
onsite
334
microcontroller
oxi
headquarters,
ag;
teradyne
0.88
tastes
stated.
accruals,
spg
share-
forgo
##gr
take-
non-utility
high-r
home-
##target
charges;
slo
currency-
planâ
expe
.8
profess
"ch
##ronic
##eight
##99,
•n
repe
##.3%
vending
foreclose
value/
rear
austin,
records,
expiration,
in-licensing
peanut
https://
?1
essentially,
gastrointestinal
##xio
testimony
cracker
##ublic
lex
anyway
bluetooth
barb
anesthesia
##eason
simpli
mgic
butt
re-b
nominations
cere
resist
reclassify
dense
“c
cav
##vironment
##ing)
##vable
##zes
billion;
swim
##lable
yours
richmond
ado
shah
pharmacolog
mid-market
pir
het
happens,
distributor,
2.05
##gent
genotyp
c0
wat
ourselves,
hae
co-p
safely
##-ch
##hale
clin
tsa
frequency,
billion),
##selling
##ex,
##250
##inger
genuity,
inorganic
"j
overcapacity
0.83
(fin
another,
##002
submarket
c)
##-service
publicity,
[ph],
(25
’s
ascertain
##5x
kis
carryforwards,
##8,000,
registr
digital,
mental
triad
##rbo
chop
business:
gard
confe
0.
49.9
"ho
growth-
pdufa
2012:
##afe
www.credit-suisse.com/researchdisclosures
##0;
•l
kemper
pull-
mifid
hikes
dro
0.81
usual,
accommodati
17.4%
pets
---
penalties..
542
market-leading
misc
esrx
##rans
iac
universe**,
holl
approx
##0\ulines]
7.25
14,000
interpretations,
hospital,
disco
##usive
tropical
dust
profi
##sur
underpinn
quadr
mort
##5b
tackl
41.4
15.9%
services:
kau
##ylat
harold
gin
cooperate
management.
cng
40.9
351
##ps)
##som
quotations
's
nvda
eis
caustic
nbcu
in-c
##chem
fet
?r
##graph
carload
342
hereto
gerry
watches
##vasive
##qual
inaccurate,
eqr
347
loses
##neg
neurolog
##dman
sbu
jt
indenture,
hou
appropriations
2012-
sag
planting
loc
lifesciences
earthquakes
##ngton
v-
jefferies'
##4%)
##ystems
trick
detailing
albu
##.i
##wned
##regulat
670
mature,
stagna
poorly
gpo
1.34
##,000)
6,2
willfully
unexpectedly
trends;
ord
##impa
manito
contemplates
##@sterneagee.com
##sit
undesirable
##2007
880,
##uba
euro-
slope
rok
mgl
firmwide
5,8
1.62
mmcf/d
##ystem
lasalle
##ycle
lipid
(some
originators
marcus
lia
marlboro
immigration
2011;
##ms)
##eye
##/mar
dyna
eld
pmpm
##haul
long-haul
enrich
##gist
twi
mcke
##xel
overd
movements,
enjoin
credible
temper
sona
mage
lec
##lso
364-day
insect
precede
ebi
contemporary
preem
4q01
measurable
fitb
##mov
materially,
##ural
rehab
2-year
##-pacific
presented:
cedar
sales..
debt-to-
##lti
trop
man-made
47.5
##cience
jag
##lete
pertains
coll
41.3
##zac
##gress
##4,000,
arteri
##estimat
hancock
dinner
2.65
##zb
##ie,
"mi
particle
enjoying
midt
ql
us)
##f's
688
##xia
mid-range
headlines
statute,
renewables
##sting
##pot
otis
determinable,
43.8
##erro
buckets
chargebacks
robot
fibrosis
unma
high-yield
declaring
aar
##to-s
##kind
##ctive
goo
founders
pitney
explicitly
##2008
13,000
##-3.
regimens
##1\ulines]
culture,
steepe
carefusion
copyrights
answer,
##uar
reservoirs
lights
measurements,
nfa
murray
contiguous
ay
40.8
mbp
irrespective
heather
2m
"well
writedown
(ex.
amerisourcebergen
100,
##hee
superco
appe
remodeled
“g
unr
daw
cic
utx
35-
##bat
anymore
binder
##xim
wagering
matches
##main
ole
non-inf
twenty-f
gamb
renewals,
357
(7%
pierce
accommodations
-1.
##mila
##-rea
repu
mined
284-2
wab
customers.
commercialization,
##one,
motorsports
##factor
incur,
geni
barring
exhaust
cpc
applications;
toyota
data).
58,
##abili
pacemaker
fye
juve
dividend/div
displays,
specially
domin
csd
tris
located,
##rine
sealed
resources;
pneumo
ldl
(tho
##.6%
pre-o
chan
1.31
##ao
subsidiaries'
115,
triang
ks
cyclo
##-lan
materials;
m&
37.5%
non-compensation
friedman
##er's
norwegian
argin
141(r)
logi
24-hour
(50
##tati
explains
8/
5251
##put
##phas
overlay
clients."
buybacks,
##/sp
changes.
trico
mosaic
##6%)
solu
yoy)
directly,
nab
lie
##xl
i)
##agi
cef
##pharma
night,
modems
hamper
3q06
##-ad
malicious
exterior
##-case
o:
clientsâ
agreement;
afsl
##-inte
hond
f3q0
waterf
numerical
blast
2q02
sieg
123r,
entitlement
##ure,
olympics
“u
##know
##gf
warn
##asti
marie
perrigo
##-digit
block,
##ealth
recip
##chil
hick
fayetteville
15-year
playb
expedite
outfitters
?no
zocor
ov
hef
correspondingly
expected;
newfield
3000
##mand
timetable
7a
osa
hma
bot
salespeople,
retiring
##xâ
underw
##mental
##epe
kevin,
680
(nopat)
liab
fires
clearer
##nâ
##eca
venezuela,
##-approved
##chr
prost
harley
##ncel
h&
##2%)
24-
(fu
(relative
##tructure
stac
on-h
high-p
relief,
luke
cres
portals
mufg
moderate-
spares
(2%
##acc
average.
##1,000,
u:
resumption
co-manager:
87,
woods
hook
strati
strategy;
17.6%
paydowns
long-r
checks,
sre
publici
comfortably
(rep
nonresidential
disruption,
semiannual
superc
##wise
second-largest
outstg.,
open-end
1.44
(fc
ongoing,
##nee
characteristic
(ic
##zel
issuer's
hemophilia
outperform-rated
electron
sweden
##asset
workstations
non-renewal
inspector
157-
msn
gaming,
iss
0.84
tripadvisor
payers,
autonomous
'16
pick;
##phe
re-en
priorities,
donor
patron
parent,
##kn
reopen
refiners
inclement
mant
vu
ppo
1,02
##una
##leo
representative,
concentrating
sot
participations
jvs
##rav
##uil
##domi
autos
adjusted..
16.8%
##och
boo
##aine
dov
webmd
ev/sales
##-shar
toronto,
indoor
eqt
emer
381
charter,
'02
bean
backhaul
363
merck's
rsv
in-license
auton
unsu
##ntl
(indi
injunctions
169.
allergy
##ener
##13,
##ester
cautions
##bill
corning's
approached
348
164.
investment;
anti-bribery
##/ebitda
##dim
stationary
shannon
recal
ntap
##trade
stanford
2005-
subst
fluctuations;
product's
0.79
broc
##rele
undergone
8,3
(md
##yst
mds
take,
41.6
venue
full,
fees;
2009..
##/se
proppant
##2e
4-5%
rapidly,
downsizing
168.
##-times
##vita
##zzo
scenarios,
craw
##-am
##e:
##andi
unif
hap
1.43
346
31st
(dat
##ults
[foreign
##velopment
vulnerabilities
2.80
gou
##ctiv
inverte
franc
brig
2012;
166.
1.52
##parts
##coming
##upl
acrobat
##-loss
fremont
f2q0
(ir
##9\ulines]
##afi
precluded
birth
076
n/a
membrane
cbi
capital-
shareholders’
rn
acquirers
403
pier
ova
dre
remarketing
ones,
client-
gulfstream
antic
zetia
income/(
purification
(app
"p
19.5%
##ync
re-pricing
(9)
clarify,
faster,
##04,
substantially,
asr
5,0
##lse
44.5
(wi
?d
##mot
delegate
compressors
operate;
euronext
debt/ebitda
/b
##101
tolling
oz
acl
##rren
protease
theoretical
##liz
meridian
chic
##lusi
target-based
ex-f
##6,000,
deficits
46.0
py
lati
341
##ner,
cannibaliz
##fun
overe
pathways
linaclotide
36.5
##pene
dau
enough,
'17
##alys
initiatives;
amplifi
##ising
##hb
time)
lup
amph
antiviral
0.92
##quired
##arra
scru
reinforced
##tus
aerial
42.4
volume/
167.
##-1,
ling
##urat
republic,
##self
361
##tab
phelps
##luc
##bush.com
329
high-quality,
finances
825
##antia
##xpr
future;
vodafone
angiomax
##wind
##acre
separation,
once-daily
distinguishe
trin
kerr
cerner
33.3
glb
pulte
nonclinical
##platin
marke
create,
##sponsored
ti's
##look
computer,
magnif
mco
wlp
consents
aspiration
"h
##assa
subscription-based
nights
israel,
sung
##erap
##oul
unm
crow
##tien
##pk
nonperformance
high-t
healthy,
2008-
sea,
##sura
grouped
big-
pave
specific,
l-
##ror
shut-
1.47
memory,
forestry
6-7
3.25%
illustration
250m
##h-
tab
modulat
insureds
##genous
grove
breed
vag
new-
lamar
##.4%
feli
prompted
##fficien
190.
##hani
page,
fuel-
463
##-08
##apt
peptide
##ss,
onerous
ligand
##therap
reasonableness
amer
##aunch
##-09
(estimated
367
366
kur
hematology
455
##ibility
lme
6),
##finit
telesat
oncology,
switzerland,
mechanics
2007-
##nag
##gger
worksite
##lou
##ppli
propylene
ont
at-
##jc
cover,
##pli
(sec
subsidize
brl
fixing
switches,
sage
tuck-in
cts
meds
haas
##nh
shareowner
aer
ulti
synthesis
outright
bold
pre-b
overwhelming
controvers
41.9
2010:
##resi
##mail
7-8
40m
jdsu
ally
resolutions
province)
##spect
##&m
vat
t:
##nj
##marketing
dispersed
challenge,
44.0
##t"
##c/
gci
auto-
##)-
16.1%
undetected
##jack
legislative,
profit-
overseeing
12:
"us
hackers
peabody
barbara
reschedul
720
##purchase
conge
bhi
##ody
gerald
fro
(9.
615
##iso
sinking
7.00
dose-
patentab
multiplex
6.50
##mployer
slov
inspire
gramm-leach-bliley
plante
overstate
schools,
rox
wit
urs
reagent
fca
371
2q07
##1.5
non-clinical
betsy
##lian
ec4v
alza
lumi
convince
oliver
eight-
competitorsâ
kine
intl
q1'
portrayal
etch
institutes
tere
49.5
towns
##.l
##2,000,
endanger
46.5
break-
##outh
enrollment,
##fg
junct
depu
capital)
deployment,
non-h
beach,
spis
##.2%
romania
##-win
sharon
client/
assetsâ
penetrated
##lator
##500,
governance,
value-based
payoffs
abt-
(under
sars
halo
mt.
2009;
##anaged
prioritiz
person's
nonca
dap
apm
##-25
debenture
fasbâ
regression
2.70
##velop
safe,
kmi
vancouver
outlook:
indu
45.5
42.7
(ve
rbcel
16,000
forb
fulfilled
##lom
hand-
http://www.piperjaffray.com/researchdisclosures.
-8
##-enabled
##bell
low-risk
businessâ
##iati
packing
##ingle
este
closures,
nephro
malpractice
##position
rating/suitability
lf
(cha
debr
?investors
(united
q3:
polyp
pocket
2002)
##prev
##brook
standardiz
exchange)),
veterans
predominant
##3,000,
provided..
kmp
optimization,
altogether
holes
horn
high-level
41.1
fy'1
##mount
eri
nicor
130,
instrumental
wg
jenn
grants,
171.
"gr
auxili
panhandle
32%,
##nab
namenda
sandwich
ctx
labcorp
##gol
quarter),
methyl
by-laws
bioma
?v
##mach
punitive,
nal
fast-
(ds
equity/
conserve
##.7%
##uff
##teg
companies)
18,000
correctional
##zal
##alin
##-na
disaster,
solutions;
##veri
laclede
fans
##inue
##bv
##acqui
underperform-rated
thereon,
cep
adva
odd
debts,
##usan
##ident
##plast
cah
(sep
hud
flat-
aspir
wednesday
victoria's
31%,
(con
floating-rate
programme
dew
ameriprise
##rges
traits
cove
broadest
aus
capsul
##clu
dog
##9%)
##ister
##com/
register,
hungary
203.
single-digits
delivered,
finra/nyse
"con
##uilding
angi
jimmy
suppress
increasing,
dps
interruptions,
tang
##[data\utable\uremoved][data\utable\uremoved]
quant
plain
354
leh
europe/
clu
inva
##/01
##pproval
##oca
70-
##75,
##shor
not-for-profit
bank.
artery
##uber
cera
cendant
##-per
465
hero
##dar
(revenue
widened
promulgat
polaris
##erne
vintners
upse
extinguish
estrogen
circumvent
33%,
quali
infinity
906
##/va
revo
nutrient
mapping
infrastructures
forefront
oat
oversees
##hawk
oca
de-leverag
relocations
tim,
kiosks
##ablish
move,
ker
reuters.
polar
358
"financial
##agl
physically
refinancing,
pvt
##tual
assumed,
##ntu
tem
19(5)
unwa
1,03
##fet
hpv
(25%
##ancy
##/res
servicing,
compendium
sfa
20-25
ende
3m's
mast
(neg
##hm
##fill
guides
centex
4q.
re-evaluate
prestige
attachments
1-2%
sorts
ninth
clara
(www.
responsiveness
liked
shea
(dcf)
value-a
tesla
42.6
margins;
levin
gei
"designated
##mile
midwestern
3q07
##gor
hn
85,
42.2
q2:
kyle
##wea
sust
classroom
##viv
network-
13-1
fast-growing
conr
casing
##yielding
chang
rj
0.86
discourage,
borrower's
sensitivities
probably,
abstract
underscore
biomedical
11th
p/s
##sley
inhibition
0.96
##cto
julian
fibro
singapore;
piracy
90-
##ford,
sustainable,
sub-l
##uir
tit
1.87
##culated
buildup
590
shar
rmr
denver,
decisions..
a1
non-cr
##desi
known,
else,
1.48
transceiver
amro
##ient
zf
having,
geoffrey
recoverables
pumps,
##/wa
redeployment
7),
iptv
bue
42.3
(net)
tsmc
##7%)
##09,
##rise
occasion,
lea
pharm
origination,
##inar
costs..
(g)
unsold
imo
boys
ever-
2017-
20.5%
17.3%
##-vi
lp,
409
included,
##-mat
##iga
19x
##tw
##linked
tile
greg,
gabriel
dvds
chile,
##.00
pellet
morgan.
mmc
country's
pig
inaccuracies
self-in
2009-1
seizures
##pril
deserve
##ype
discussed;
long-t
deaths
endos
customer-f
378
1981
185.
kelley
hell
carrier,
brav
##inte
signage
bev
##/ba
coco
bia
plat
isis
agm
accredited,
##--the
putnam
##/un
##nden
intelligence,
mut
6,3
farr
c3
bolivar
18.4%
(using
parties;
cl&p
##/ou
hpc
thames
17.9%
sophistication
##ska
##ilitat
colo
##dv
##activ
confirms
accus
/t
141r
(1%
##7,000,
##ycli
survey,
parents
acto
gdt
enrolment
complements
710
(tra
franchises,
billings,
award,
redemption,
frequencies
ebitdax
effectiveness,
(9%
vog
seniors
affluent
##fore
protects
rocket
njng
institution"
141,
##gro
marine,
midwest,
drydock
rsus
capp
##tou
•con
direct-
372
merchants,
0.99
wales
ttm
##-fil
##teen
workout
collar
acquisitions.
45.8
##writ
high-grade
btu
(000
##inat
--.
##05,
impediments
cascade
##fili
(rec
##unk
41.8
“we
22.5%
forfeit
coatings,
##22,
storms,
quantum
marqu
months:
equity)
reh
partners;
overp
##llion
tonne
cim
admittedly
##nica
(any
##@w
nip
three-tiered,
subsection
##uction
##ffect
mys
genesis
nda,
customers:
##/share)
##osed
factors.
float;
exhibition
silicone
flan
1.46
inspection,
forthcoming
axi
##ipe
likes
770
polysilicon
elasticity
\u\u\u\u\u\u\u\u\u\u\u\u\u\u\u\u\u\u\u\u\u\u\u\u\u\u\u\u\u\u\u\u\u\u\u\u\u\u\u\u\u
"to
remanufactur
dominance
10017,
"not
##while
##rer
##lized
##deal
ehr
relo
neupogen
boxes,
339
"cl
manda
bge
awful
62,
173.
##bil
e&c
##lade
pre-acquisition
50.1
(ny
mesa
1.41
(#
rescind
prel
hansen
seasoning
(cd
(el
ukraine
caro
laten
ipa
jurisdictional
##erni
##antine
fdic-insured
resona
ordinance,
bow
2.85
apol
8:00
##fes
refueling
reallocation
year-over
##alc
glyco
end-customers
3.15
substantial,
mano
date:
wesbanco
waste,
hampered
##rex
sherwin
chips,
6,1
(non-gaap)
##.1%
##iab
##cord
resu
##v.
-15
miner
7.50
42.1
uncon
reminded
nei
gy
fou
accre
1,15
levo
fres
connects
815
(credit
##arc
3.20
malo
##xte
furnishing
uro
muse
(ai
overlapping
##ogy
dissolve
creep
maxi
swedish
##01/201
hpq
##eso
understate
domestically,
refurbish
longer,
consignment
##-to-p
##y.com
sever
##rell
(nf
##rme
##per-
resta
stocks;
phasing
cpm
lom
##-derived
renagel
18.6%
minimi
billing,
##facility
projects;
calibrat
normal,
company,â
ons
greens
unnecessary
2,20
1a.risk
##kl
##igan
sits
inco
arguments
modules,
snf
pre-l
loral
hyd
##nav
willi
three-p
lucky
asco
(sm
11:
chamber
subject,
2.45
schering
post-closing
##.8%
##region
asd
35.0%
inci
hoc
49(2)
##yto
unisys
riverboat
packs
offers,
refundable
nico
1.39
##zh
##oit
languages
compete,
##yma
graded
##5\ulines]
##pes
stevens
24-month
2014:
assimilati
##.re
branching
174.
marian
bundles
monetizing
ets
nodes
##health
preopening
(mc
##rve
airfreight
373
1,800
(when
##ered
##bag
“m
##/sa
("jpm")
##rett
1,01
##wei
floorplan
e*trade
cap:
##".
##wed
##ances
comptroller
(consensus
(af
##ver,
svb
planes
holders,
##rivat
sufficiency
recruite
activities.
##lut
f-
17.2%
("sfas
disposal,
contamination,
product;
margin)
finalization
edit
17.1%
##/7
assumption,
17.7%
##-35
x86
nstar
laurence
world-
2015:
memorial
drive,
disin
48.0
dual-
356
high-tech
afc
##fo)
otherwise)
jean-
j&098
1.56
("jpms")
##mpt
unhedged
denomination
176.
under-perform
tracker
valves,
orch
edu
cmi
##gge
##aj
crist
3.30
2,300
"str
photocop
newb
bog
vy
burne
##emark
victoria
6,6
annualiz
constituents
ega
appreciation,
##large
shareholder's
0.98
(-2
resubmi
reengineer
wallboard
##strat
90.0
(referred
##lyt
disclaimers:
attractive.
##lev
server,
brid
diminishing
lat
electing
peac
##kow
lumpiness
capsules
inma
all;
18.3%
value/e
msc
[indiscernible].
q40
(“e
##ross
##boston
##/to
turnover,
minn
##uve
##opic
0.97
##alg
“ex
nco
etfs
components:
inc-prim
##fini
inputs,
50.8
(afsl
verde
progressively
677
makeup
favored
cost-reduction
##epi
refining,
sanders
infil
0.94
tool,
lennar
leader,
citicorp
carret
6,4
warfar
dyn
16.9%
rupee
delete
bioa
2006-
##cessing
intri
"on
aws
accordion
##mma
televisions
practitioners
fdo
##***
##lip
gos
##mpe
##-ku
xyrem
##systems
##nded
##click
perform-rated
meri
magnet
cheng
##ides
mirant
19.9%
(management
##segment
vivo
plastics,
guidance.
##ument
##logi
##cted
remitted
##ologic
•increase
(mil)
##investor
tos
pvr
perform'
44.2
##fuel
zack
kaplan
discipline,
modernize
##ountry
marr
prea
lower-priced
eve
sour
pronouncements,
oren
lesson
10-12
system-wide
tec
light-
##-pay
##dos
rooms,
deductibility
18.2%
visualiz
set,
diag
china-
redevelop
noticeable
embargo
6.75%
deterr
wam
pops
life-threatening
725
##uted
hull
159,
##ball
telep
pds
gain/
ratable
oppos
nok
circumstance
ebo
backward
##03,
investimentos
(ticker)
(low
shown,
##/op
##pment
grp
362
weld
reve
49.0
##uss
calg
fasteners
842
(exclusive
nominate
17/floor,
viii
583
2012..
8.00
residence
##.pdf
sizes,
pens
0.93
##los
vand
conditioned
sept
derma
##ista
jose,
underutiliz
privilege
mes
(41
num
##s”)
##burg,
suppliers;
seafood
prol
non-di
##ulating
students,
ira
bsc
42.8
17.8%
##fus
##effect
health-
breakage
##marc
solo
45.6
##mr
fnma
bladder
##0s
##very
modifie
('fsa'),
##urb
couldnâ
##dio
holding,
quaker
restatements
recycle
classifies
"non-
studying
reproduce
licensor
"sp
##ckag
equin
##pharm
directives
capitat
##-exp
soy
##standing
##para
nondisc
##-po
##tiva
buyers,
50bp
('rbcel')
##axi
smith,
dollar-denominated
timeframe,
##boe
price.
42.9
10%-1
reversi
beats
rede
dob
##ncies
##ons,
3.10
##tf
kid
jumbo
0.91
markets.
hematologic
bodily
*new
vern
ineffectiveness
accounting)
ingredients,
(et
intel,
csa
(th
##001
non-rec
48.5
re-engineer
porte
##cru
fuse
synt
converters
##zu
lpg
for-profit
daniels
impressions
definitions).
chooses
##3.5
'outperform'
##utiliz
##meta
##/comm
##sent
##mh
##anticipated
mtb
companys
/-20%
underway,
cdi
44.1
wha
lop
dpl
'underperform'
northwestern
'sector
##,60
erg
carr
deletion
2.5%,
##sma
##shire
##grated
##ferred
networked
bribery
attendant
apples
consultancy
glu
security;
bancshares,
revenue-generating
homebu
acquisition)
##/pe
hemoglobin
telephone:
nnn
imaging,
dmi
4q12
penta
joann
drillship
##cht
mid-size
.9
##erv
attained
("wfsal"),
efforts;
##40,
lib
1-800-
0.89
##therapy
newma
44.7
spinoff
debt.
51.0
seattle,
45-
litt
(part
(32
america/
tri-
celexa
carmax
(current
instruction
[part
##sal
33-1-58-55-0
##err
station,
exempts
wel
##.9%
approvals;
##feri
ast
38.5
(12%
robertson
rarely
##rong
##dh
adequate,
##/30/
disbursements
##tral
“ma
##0b
medically
43.3
##dif
overtur
actavis
##fier
revenue),
plugg
"disclosures
berk
adviser,
clair
(“p
##'s)
##ape
sallie
cuts,
##than-
posed
analogous
1,07
peterson
mei
columbus,
disturb
bylaws,
1,04
##/gr
##nology
forty
collateraliz
imetelstat
yen,
pfg
iu
exits
abf
110,
mae,
dublin
##brie
needing
information;
##/ch
##kg
##conv
vera
utc
points.
kwa
gerard
atri
(mid
format,
412
leon
5,9
assembly,
3/4
slic
herein.
at:
52.
zol
next-
constitution
unscheduled
over-allotment
2.90
shau
gig
agencies'
6-8
(go
remicade
promotes
normalization
dy
capacitor
lod
cap-
hello
alla
##mortiz
(11%
motors,
beverage,
?2010
finland
##-90
##ported
##closure
non-w
davenport
cultures
surprisingly,
forms,
domicile
##rd,
suisse,
merchandisers
decor
reins
on-time
45,000
consuming,
##to-t
redu
##nated
(aa):
transistor
3.60
(nz)
##otia
flow/financing
##oz
forgive
denominator
##ntic
vietnam
drastic
decreases,
vivi
deva
##rase
16.0%
(avg):
non-sta
entertain
perhaps,
jds
##sh,
preparer's
bec
idacorp
##gine
superstores
suc
"other"
restored
polyester
##lati
non-dis
43.2
##-19
arrived
##/ret
##egr
recessions
non-mo
43.6
slm
##g/
policiesâ
hau
8000;
pick/outperform,
consumables,
3bj;
growe
515
399
supersedes
midcap
nigel
bie
##07,
bbt
call.
ï
subassemblies
philadelphia,
afudc
reciprocal
ols
unsuitable
tenth
airplane
52.5
##xone
struggled
##chard
www.macquarie
twenty-
harvesting
durations
community-
co-locat
(64
##t/
##reta
##company
garmin
a/r
3com
catherine
package,
erb
##ops
##,20
disorders,
?as
themselves,
##lei
inter-company
(reported
webe
trinidad
value/share
relay
6,7
digi
##/net
2.00%
##recover
swin
13-week
csi
abb
376
dub
##zole
5-10%
##capa
rebalancing
interconnected
3.75%
##disco
list..
34%,
##quire
##mmi
harp
genetically
re-est
prote
macao
girls
speedway
polo
infa
##19,
earthquake,
##ipr
qualifiers
milwaukee
43.4
##ys,
determination,
cisco,
chloride
providian
multi-sta
low-income
heels
cry
##imate
complexity,
##[
##faci
berge
phased-in
musc
number:
spp
phd
impedi
27.2%
sotheby
nasd/nyse
grains
ascen
##olt
##ext
wisconsin,
ulcer
kyo
e-business
##-acti
than,
poland,
megab
call:
athen
annual,
20.1%
1985
##rene
##insured
182.
##es"
spencer
faculty
q4'
landscape,
grows,
factors;
pand
tuc
(10.
##laim
transformers
##ca,
2006e
view..
angle
revamp
optimum
squa
brus
standardization
spring,
brom
485
struck
biib
anf
##-scale
##iter
patient-
##ibu
##asia
dwell
resonate
expa
47.0
##om,
property/casualty
zan
2.75%
##rite
stimulat
2016:
feraheme
sten
safeguards
177.
17-
peer-
(viii)
fda’s
?pr
yahoo!'s
strives
real-
195.
innov
1,12
##ée
(among
2004-
178.
greetings
##dera
##cab
introduces
##-to-s
##taking
##-the
##ension
decreased,
"st
##psi
needles
ihs
therm
maje
arranging
remand
collects
bif
ucb
##recht
##mble
coverage.
compensatory
62.5
18.8%
dysfunction
##hydro
categorize
##onent
##locat
unocal
##gig
shack
m.d.
45.9
2g
sty
dup
##ssu
##.com/research
unanimous
##illo
lance
##pet
recombin
##porta
moc
374
hertz
ft.
films,
unex
##urope
##diluted
columbus
##iona
epr
behavior,
petrobras
ibi
##-resistant
##o),
www.s
peers.
alexion
dye
(representing
know-how,
bern
2005e
reb
documentation,
##29,
vick
taper
raffles
property-l
##itor
ska
32c
sid
bifurcat
##tea
ginnie
1.58
pee
mentioning
##ssed
abe
##mcf
200%
trw
quick-
portion,
barrett
(ps
air-
uncontr
jnj's
aeronautic
corruption
bop
##ege
arrays
mitsubishi
glaucoma
hostilities
chlorine
95,
##optic
price/book
anni
frito
falcon
buses
would,â
medic
advertisers,
refinement
philippines,
ome
westw
840
120,000
tio
month-end
vapor
packages,
abundan
woodford
purpose,
granularity
-t
weights
trea
(33
##10.
opted
20%-
2.55
181.
specialize
rdc
##hone
imprecise
##-sensitive
mcv
f1q
##-mak
chil
bing
##-bu
##-grade
remediation,
needs;
##-fully
eighteen
crime
386
##xan
orientation
grap
505
71,
200mm
burke
southcoast,
##ifies
##cks
shoulder
diaper
bail
25x
t&
21.0%
##essa
skel
[data\utable\uremoved\u5
##dem
vene
sale/
rfid
##cca
unstable
pras
piece,
huber
ais
uti
tcja
cari
exhausti
4.5%,
##roi
over-the-
lenn
quotient
persiste
179.
taken,
gecs
fujitsu
##kers
##eal
arca
maker,
43.7
##istr
ã
pool,
mission-critical
reinstated
elast
416
##amet
##/po
##vale
##ontin
allocates
in-line.
90,000
tok
edd
wmb
herbicide
actuat
sock
pmv
##,40
ctsh
402
##-size
sensors,
bros
rag
constraint
solidify
belvi
pent-up
gravit
doubts
##ool
##iy
triple-
australian/nz
##chain
aqu
antip
##ually
408
##lige
ell
##tche
##born
##tx
revals,
60%,
(private
reinforces
##ais
paydown
57.5
##hydr
brew
##inn
issuances,
picture,
hint
drawdown
1.67
##lind
elk
(sing
scotts
redirect
##prote
1.57
##(i
rnai
otherâ
emo
rsh
pure-play
libya
(ct
unimp
nam
##bear
second-half
nintendo
maco
chatte
50-5
"no
stre
hh
co-de
369
1,65
##oder
practices;
harvard
diligent
143,
(612)
sandr
mismatch
m2
pharmacist
circuits,
359
gilbert
##edo
##defin
uph
sono
rsa
revolver,
eighth
(man
wrong,
eog's
#*p.
non-ho
(fr
diabetes,
##resen
rud
lubricant
rpm
mille
endur
directing
##,80
holland
carloads
assurant
##-ti
synonyms
406
deposit-
11-1
##ics,
##fis
encouraging,
47.7
narrower
21.5%
conflicting
14-
##406
##prim
configur
drift
##,30
##motive
client's
mick
comcast's
nag
1.54
whirlpool
filed,
bits
collector
bottles
(piper
##urit
uninterrupted
stefan
##enda
transmitter
proxi
bomb
reach,
advisor,
ipi
##ogi
thalmann
molson
carryback
##ylene
44.3
##ues
cylinders
true,
metropcs
##chie
##aner
holly
current,
stripping
##ebit
bx
gaylord
influ
##operative
##llan
tai
printing,
agreement")
##ermin
judy
double-blind,
##eiv
"si
##mfor
viol
##xs
prepayments,
##asa
choppy
"ta
two-way
(mostly
incidental,
fares
provident
at-the-
inst
63,
##mun
pacificorp
##/inf
##ially
##owners
600m
43.9
(equi
motiv
floods
##000,000
##pee
immunotherapy
denis
183.
barda
44.9
peopleâ
orbit
kansas,
##lls
commissioned
buyback,
projection,
kel
handbag
guarantors,
specifies
amso
(fs
shire
(millions)
products.
henderson
beg
2009:
imc
##manage
pathology
59,
##dev
revitaliz
alv
187.
##stl
##basis
polyo
46.2
##erica
gus
gle
##it-
##hst
##apan
##/dec
##plex
##esta
recla
italia
7x
(discussed
concur
##imu
weatherford
sma
issues;
##cyte
presume
outlooks
toma
##-bearing
unreco
redeemed,
mac,
altr
pv-
mpc
metall
2000-
ster
illiquidity
##pil
lamp
250.
ppas
spills
reactivat
holdco
fees)
perkin
mother
monopol
workload
ek
##rable
passu
non-compete
broadly,
cvx
##yard
##duty
webb
vee
superiority
spectrum,
dru
19.4%
(fasb)
##ffle
conceiv
genuine
syno
www.th
hesitat
##/tra
lorillard
"our
-20
years'
##tti
firearm
2015-1
(bl
inherit
##nanc
##disp
pana
sanjay
cater
aet
##yield
##revi
##bac
99,
1,90
microp
cellularâ
##dollar
##2013
##geo
fixation
5g
1,700
uob
countries:
alta
1900
("fa
##hemi
intu
61,
1,06
point-of-
2.95
etn
nba
military,
43.1
lad
avan
aln
pay-tv
clicks
blackstone
##appl
surplus,
2013:
##zm
(sig
1q01
##general
##ck,
stum
##nation
ampli
##thro
##duci
(000)
##/vi
##¡
alum
##heimer
zip
serum
helm
diversification,
192.
plus:
nicole
editing
deprec
3.40
##train
##nin
nyc
facilitated
ses
(pri
##harg
ub
reports;
##/bu
##-cor
##s@
web-
njr
"price
##toxi
44.6
##,70
complemented
tum
multif
injections
higher-end
##gw
lq
compensatory,
"inte
toxicology
transformed
million.
madden
##orial
##on.
fernand
cost-effectively
durbin
livestock
untr
clearing,
##operat
registration,
pere
gon
##neutral
sec’s
behav
assume,
hunts
therein,
##z-
##nger
(flat
iridium
cyclical,
##nergy
hemat
curriculum
plea
mainline
litho
unsuccessful,
yards
saturation
1.53
mcdo
inflated
alliance,
shipb
overlo
detergent
spud
##cou
void
aapl
6551
048624,
#15-20,
##uta
reauthoriz
aut
##ylan
dav
##/bi
##vai
gia
alberto
"net
(800)
lifesciences,
unpr
leb
bullet
lasting
equal,
committing
##omics
forbearance
system;
re-de
plo
hanging
5.75%
##smi
##mous
multi-f
respectable
leslie
breach,
shl
full-line
bridges
184.
zero-
2008;
hadn
44.4
3%-
##inanc
pip
##zzle
letter,
complicate
36%,
##/bo
investing,
"good
infine
galaxy
discouraging
salespeople
retailing/
recommendations.
9-
33.1
secure,
iq,
##ic)
unionized
https://j
bottler
floaters
majors
vent
on'
dta
4x
##rtifi
##perating
##cient
4),
(y/y
##u.
##ryn
##ll-
ticketing
qtl
citigroup's
brow
noo
contaminants
1-21
##hall
stm
unreasonable
unilateral
genuity's
clos
##soft
(gains)
memberships
##enu
##0),
##br
r&
effi
rode
45.4
quantifying
##escen
presc
(0.0
##equity
##rino
##hara
nut
mccormick
elevati
2009-2012.
retro
##gated
##ally,
oregon,
design-
##mba
differentiates
8,5
##basis-point
womenâ
units)
suz
##as-a
394
388
##agn
##ired
hsp
0.0%.
biosystems
pitch
opportunities;
mbbl
borrower’s
18.7%
off'
##ively
non-consolidated
350.0
##tude
##pur
##dian
22nd
train,
kem
##-36
##wee
interiors
first-time
dillon
##cription
states.
lyon
6,8
mini-
5x
392
compl
(tokutei
preventive
industry..
(excl.
physio
extrapolate
depr
##master
csco
rich,
424
188.
##ostic
cats
(29
##n1
##elm
unatt
(ebitda
angola
(“m
##ecial
lighting,
shortened
segment.
off-s
expire,
chargeoffs
##x/
xia
##/hea
fractionation
downloads
##fact
seam
minimum,
http://gm.db.com
capt
##9.0
##dict
enterprise-
appellate
gates
##on)
##nst
wholesalers,
lesions
encod
##lâ
bodies,
biot
##aries
wifi
richards
emitt
##uary
##ractive
refranchising
divergen
argued
unfi
supervision,
non-small
(lower
##/pre
alls
(ippan
(100
##irm
previously)
##nned
netbook
franchisees,
campaigns,
nancy
-1%
##1.2
nys
cabin
##vax
##chemi
o'c
arrival
504
team)
usa..
mcgra
hrb
##kal
cohorts
##uati
##mex
##ary,
hung
612
nutr
414
steer
materiali
(market
##tell
##poli
##-mile
##-av
##ting,
supervisor
punc
grind
20b
small-cap
##vice
##esis
##byte
##bur
telemarketing
refu
razor
integrations
fair,
unmanaged
gifts
tomo
carli
##hil
##ucto
##after
reint
phase-in
extension,
##ministered
compensation-
##by-s
commenting
icds
18.1%
##sib
##net,
m/
illustrati
allergi
46.4
price-to-earnings
##acce
precipitat
dsm
50.5
##roy
jor
aber
##1.0
##reas
seac
satisfaction,
subjectivity
cyber-
newspapers,
2010-
##zza
##-buil
leaf
##iling
(617)
www.morganmarkets.com
paclitaxel
fox-pitt
secondarily
claritin
comparable-store
allison
##ments,
rubi
pto
rps
myers
bilateral
##/disc
uo
monro
reinsur
marina
boehringer
3-5%
"dis
stockholder,
explanations
biops
1,00
understands
products'
counter-
(hea
##txt
##rax
optionality
ctl
vision,
##nso
closeout
##3.0
frie
extrusion
cypher
##xit
tucker
offshore,
dece
upholster
smu
lta
##screen
##anc
smartphones,
skype
irene
?for
gast
citi's
2015-
(comm
harmoniz
dividend)
5th
tubes
storing
##iciency
##-indu
famous
trimmed
taxation,
infants
engel
itunes
concept,
paints
2013;
traders,
collateralize
estimatesâ
delisted..
387
##reme
discussions,
harmed,
consolidations,
llc;
debt-to-total
prone
body,
##usiness
##mm)
plu
incre
2027
sra
reor
?our
1.49
##roo
business-to-business
apportion
186.
fighting
diem
pis
drive-
45.2
##hips
revalu
practi
mercantile
basics
leno
jewel
episodes
1,08
##tted
##omed
erm
##bes
profile:
##fish
opec
dk
46.3
laying
driller
payouts
"tra
sune
*stock
'18
landlords
(12)
##-gro
##money
seamlessly
isobutanol
harness
commissioners
(acco
mdc
150-
##ffic
island,
bacteri
(subs
##flict
##existing
##4.9
remark
idled
##-qu
boyd
woods,
gastro
##vari
##connect
##ate,
rents,
##-str
##ceutical
narrative
##enha
h-
spect
prophyla
(13%
"20
##tica
##(d)
biof
##to-co
mud
flow.
writes
reconstruction
15%-
##-quarter
invisalign
##2b
##ociate
turf
businesses.
##-capital
privatiz
nw
helen
forgi
revenues.
"ge
##hf
gte
pay-per-
kimberly-clark
189.
occupan
##frie
www.st
tenders
financing;
arti
8-1
"expects
'sector'
##bau
semisubmersible
chances
youth
valorem
thirty-
?w
396
"hi
owens
avoided
factors)
##uced
##itr
role,
gearing
afi
##-man
outp
##/ri
oig
inacti
handsets,
apples-to-apples
##ysi
service;
innovations,
##in-p
lig
##ó
##pos
likewise
##rbe
##frac
broadband,
495
homebuyers
##onth
##mag
cura
cross-li
bris
buffalo
31st,
non-infringing
fairness
distinction
fif
##witch
morph
2,40
fishing
24.5%
subscriptions,
extremit
rif
##tax)
##dat
("s&p
adhesi
##98,
re-pr
kindle
p&l,
communication,
active,
##mbl
##gul
diverted
cliffs
vg
##4.5
##-williams
implication
8:
##eren
to)
scot
##-one
•h
high-s
appleb
##imp
strau
planet
definition,
mid-19
kmb
##-sale
symptom
dredg
49.4
argo
legislatures
driven,
coleman
unpa
##nati
##gai
p.m.
19.6%
webs
npa
conf
present):
pps
ert
conno
(principally
##-wo
ª
payl
##icia
synfuel
resets
bancorporation
##atel
mark-
(tp):
##signa
synthes
(spec):
(sp):
reis
pre-in
exacerbate
##fast
stol
richer
45.7
farming
evo
non-performance
411
meg
1984
stag
outgrow
capex.
##-bus
recommended,
janet
boc
yhoo
##nd,
•ac
210.
##mph
760
##80,
##/not
730
(mon
##terial
teacher
allo
meats
hollister
applicants
unconditional
co-m
##developed
mids
grass
grad
kaz
##erre
##lica
maca
gum
##censing
volcker
pcg
(whether
##vesto
##stanley.com
macu
(det
roes
carry-forward
nons
##rox
##-weight
##lever
non-me
medicine,
adh
##\
death,
431
"project
underwe
broker-dealers,
(er
##/unit
46.1
##wick
vect
unitil
meetings,
occup
cola
cancellations,
422
##vid
phone,
flow-through
abatement
19.2%
wired
statements:
so2
15m
psn
antisense
algeria
accountable
unrest,
dang
##sifi
sumitomo
knit
greenw
##jecti
milligram
freed
17,000
##veni
staffed
condo
apex
##éal
##-dep
##omic
##yth
##nza
rake
contents,
417
##-risk
compression,
##osit
noncomp
non-binding
glut
##zoo
hod
everybody,
compara
tenn
arco
##berger
##uous
ideally
approximating
music,
academy
##0%)
libraries
##operating
mattress
##merica
value"
tweaking
liqu
experimental
direct-to-
##ening
patient,
timely,
cadi
a-1
19.8%
##medic
##erage
(str
animation
(ebit
“cr
co-founder
88,
gpc
##tav
month-to-month
exemplary,
lower-than
csti
##-rec
##uniti
##pte
servi
epidemic
##--c
##your
##loc
statin
pgr
leased,
##/we
videos
tucows
sabin
glp
##erate
reassessment
ares
1.5x
##sses
##mmary
##cur
inner
reim
##-pi
##ublication
##otec
##m")
##/8
ivi
gluco
asto
##ason
noncore
nail
mutations
"hold,"
sector's
loom
compounding
##yon
##oin
co-in
cort
aec
##econdary
ip-
37%,
##**
retirees
burdensome
"estimate
legislat
23.5%
##14,
##vl
##llin
modeling,
/m
synergistic
strategist
(typically
q.
odp
motorola,
reen
formulated
505(b)(2)
393
##,90
##)/
regi
club,
friction
ladder
##increas
##arth
managerial,
depressi
effexor
"deutsche
iib
##f0
theory
comp.
19.3%
5-6%
ern
kate
##2005
##-cl
stub
house,
(mar
##voi
##only
non-cu
ck
reconstructive
appraise
integr
derecogni
vytorin
duff
volk
cond
affect,
hipaa,
##icious
(exp
##sset
##reac
##cyt
##chester
transaction-related
retrans
hw
19.7%
overseas,
futures,
##',
2005..
(jan
##/medi
##mium
turbulen
mom
##pod
cigna's
1q9
##rgin
note)
linen
(fl
##ched
would've
sequ
resilience
held-
##-containing
##tile
noted)
electrode
##upp
midwa
eisai
styli
asterisk
5,000,000
##iff
(disc
("sp
fairf
fum
72,
matern
business.
##5,000,
ratemaking
##unications
microchip
##rty
pbms
(cb
wal-mart,
tat
insiders
deut
zil
refill
397
•com
king,
job,
1.64
electroph
##/ear
counterclaim
nop
1.5%,
awareness,
born
staffing,
dentist
1990s
agile
##nme
locat
infrared
arriving
##dant
olivi
3q9
##mpany
thread
boots
introduction,
46.7
printers,
##eap
share:
deceptive
aimco
##arte
symmetr
observ
dough
bottoming
##sition
##ously
##--b
sve
sheer
celera
bankrupt
?de
##sis,
##lina
shifts,
3.5%,
3.05
lucent's
bi-
shale,
re-l
?????
##otide
casp
longhorn
dow's
(bc
"firm"),
##pite
lacks
ghana
docke
cephalon
frame,
193.
##yu
##lero
pani
32.5%
##git
ees
38%,
1974
dha
regenerative
nort
##usto
##ler,
##g&a
surprise,
handler
capital.
weins
centurylink
##iat
decoupling
379
##mobile
•ex
bearings
aortic
690
stephanie
sone
fabs
##neo
"up
##glo
"so
##,10
director-
##person
##file
scotland
##stabl
##uin
##server
3-month
##east
194.
##-basis
##uarter
trow
sports,
molex
##ourse
repayment,
importing
501
1976
steroid
unapproved
45.3
workstation
fhfa
carri
##dâ
transmissions
clubs,
##ites
##cott
2004),
(“n
##np
rehearing
"company
"an
msg
cong
1977
##lace
underserved
##ngo
("fsa")
##affiliated
transla
transfusion
step-
configured
cham
##offs
foundations
cultivat
room,
pcp
lian
induct
##rto
##quet
personaliz
lps
1,11
##sident
outreach
ince
duplication
second-li
keystone
[ph].
well-de
powerâ
mar-
19.0%
qf
curi
##tum
##vestment
##no,
puco
##eme
calla
##say
##electronics
campaign,
48.3
tena
sek
driver,
counted
20s
user-
underperform/sell
##8.0
undertook
lifes
##aur
machinery,
allog
riski
mil..
##xman
shank
laterals
##vp
rescue
tss
##ued
vida
urgency
tad
dama
planner
demographics,
agl
##plat
transports
lawyer
geos
cordi
##phic
pavi
incentivize
convi
##1b
reformulat
##nib
##libr
encompassing
low-margin
##mni
jess
##tif
hock
checkpoint
cyn
(provi
gaap)
disappointing,
chemi
avail
413
avenues
##ham,
##co.com
snl
encumber
bari
##cita
behalf,
ccs
##ro,
##fense
presidents
financial's
(mil.)
commodity-
##4.0
##ducts
transport,
textbook
stel
computerized
398
purity
disparate
cost-plus
##tee
dosed
netsc
negl
isolate
conti
kol
automaker
##father
guidance:
formulate
cdc
44.8
"com
hano
50.6
##watch
45.1
unfor
unit-
spectromet
ex-c
acquisitions/
##nson
eclips
eag
detention
bma
1,09
irvin
amortized,
resolved,
quinn
##cag
?se
##take
off-system
conoco
vor
ambitious
tier-
##sfie
##ui
##rva
straightforward
memo
something,
acco
supervise
•ad
ln
crohn's
fam
##psy
carton
##ide,
wade
mobilization
##/canad
##/2012
##bay
sacramento
##reste
power-
merrima
investment-
aic
destroy
\u\u\u\u\u\u\u\u\u\u\u\u
##dale,
unta
introductory
intero
##unting
##70,
##bst
enogex
edm
(pp
"anticipates
reebok
##denc
coman
fy0
frost
diver
suppose
inning
anal
##atics
usab
(com
##oki
fy2012
ckd
##eted
tic
acquiring,
"pri
pharma,
periods;
outli
heid
##securities
whistle
mixed-use
mccarthy
52.3
tudor,
barrel,
##rill
##have
##&i
•po
markup
database,
##u.s.
##ic"
##aton
7,2
##pti
treble
gare
##-over-
wye
grocer
(1)in
##izer
non-uni
non-tr
after-tax,
##mentioned
##justed
1.68
##rowth
196.
##?0
##ucc
disma
##nsk
theoretically
retailer,
optu
68,
310-
##17,
##sle
tenne
##cip
low-pr
##n@
vil
valley,
side-
olefin
full-s
confi
potential,â
pcc
fai
##erra
fdicia
##urc
tankers
hurting
alti
npl
hilliard
show,
decision.
2010-2
635
-r
##trate
##hood
topped
sponsoring
48.7
autol
packa
offens
denosumab
--------
##inst
on-board
##ized"
##co)
daimler
##erp
thri
67,
target.
electrom
weapons
delisting
disabilities
al.,
(brasil)
tera
casting
whether,
(each
##ssen
sealant
difficulty)
mergent
##urr
high-c
provider/market
multitude
665
target's
##-wh
##-no
replacement,
cour
780
500-
tore
legitimate
tci
jaco
hend
18.9%
outperform/buy
loga
irwin
grouping
colombia,
moody's,
fdic-assisted
ssl
huawei
"cr
explaining
"ad
##--in
##ption
skip
pole
panc
##2.0
advice..
19.1%
125,000
belmon
##igni
healths
vau
dermatology
dela
talent,
omni-channel
neutro
2008e
1.59
symc
last-
##dence
“w
pillar
demoli
##xic
##ecto
checklist
##orted
propulsion
playstation
well-s
opt-
preventative
noah
conglomerate
rrc
aiv
##/20
franchisor
4-5
(spec
##-ban
jan.
##diti
corti
wai
periodically,
##pus
##iplin
dio
de-risk
(“t
subside
agil
10.
##imer
vai
billion..
capstead
51.5
17.0%
##jor
metlife,
westc
counterfeit
47.6
47.2
nestl
bent
##energy
/yr
universe;
rave
ola
[data\utable\uremoved\u6
220.
complimentary
resumption,
rebu
imperative
421
##return
##cul
dolby
computations
sublimit
cardmember
average)
6.25%
vance
estimates)
biom
amplified
46.6
##dium
transmit,
beckman
(h)
("fd
insulated
immunolog
gcp
1-8
payx
##va,
articulat
r-
prog
going,
adp's
2.50%
(s)
realigned
in-t
speci
numer
who's
cede
##6.0
##lers
##lec
kath
55,
superst
soybeans
reorganiz
constant-
in-licensed
3.35
2,10
##djust
accretable
secrecy
refunding
(0)
pension,
contraceptive
cib
collaborating
##ptin
valuation..
self-m
captioned
##4.2
##o@
sealing
inche
analgesic
aiming
fine-tun
infuse
e-commerce,
46.8
33.1%
##esa
iconi
##-fee
##ixed
(“i
##iol
scale-up
segment)
osm
"believes
vulcan
lux
carrol
2016-09
##tow
perform/hold
herbert
fisv
santacruz
pre-announced
immuni
##sense
##ds)
isaac
2007;
191.
alcoholic
1,13
icc
wyndham
##ichi
proto
tk
8.25
##sub
##li,
violating
session,
youtube
esca
##fici
temporary,
non-res
##ecur
shelv
paramet
unrea
model..
invalidate
3.70
nmhg
jil,
adequacy,
non-government
court's
undivided
system)
overco
ceg
##eneral
(year
projected,
##nsin
back-t
high-cost
##9.2
themarkets.com
rainbow
##k"
buta
(tab
on/
kalina,
gorilla
(annualized
undermine
msm
disparit
tendency
389
##ization,
geometr
(prior
cite
##deriv
22,000
##ol,
gamestop
bottleneck
##9.5
exporting
423
##sonic
##chas
phenomenal
2a
##nant
psychiatric
fia
cymbalta
written,
400098,
orlando,
techno
prolif
ncm
##celerat
well-b
colgate-palmolive
##kay
imper
exci
##uis
##azo
prescribes
##pple
##mort
repairs,
iv,
advance,
##utan
##p/
kennedy
first-in,
conferencing
199.
##latin
winners
lining
dul
cafe
##assets
spends
hidden
treatment-
treasuries
ampligen
##ffo
wpi
##--and
marketability
"pe
obligors
mora
vig
mobili
inc.(member
envelope
##unre
distiller
##phere
securities.
personal,
liter
##cki
partnership's
(business
three-t
poker
47.8
198.
197.
retrea
previous:
##valuation
##cb
populated
milan
alright,
##/revenue
maiden
franco
606,
##'11
microt
difference,
capitaliq
tracy
towing
potentially,
(american
opportunities.
neuromodulation
markets)
economist
coro
##opaus
thereto)
carbide
##lau
www.macquarie.com.au/
machini
spls
described,
##49,
compelle
##/non
pvc
loco
airframe
2016-02
*e
truck,
silvers
injunctions,
duplicati
amending
##isse
##igu
set-
##anci
modulator
nonpro
dating
##ferenc
##epti
##vity
prosper
2004)
2001)
##creas
yankee
iowa,
head,
cash)
(méxico),
##imet
prob
2h11
(fte)
there'll
lud
just-
fields,
bug
##1.1
per-unit
midc
in-stock
cull
byproduct
##ecurities
minist
dissatisfaction
##noi
##mari
multi-e
corey
blanket
"cons
rohm
homogeneous
391
##actions
pipes
faci
clx
##nov
##need
bip
aligns
locks
2001-
"wh
##-17
rebe
##mps
wind-down
visteon
nel
mid-a
confus
cig
##gesi
citrus
redwood
vigo
rob,
47.4
##enso
bbb-
##iger
kun
ocular
line:
juli
##ribut
##financ
schl
milli
docs
##/us
##fly
##crib
##viti
##sine
quo
##sie
##etti
52.0
##to-g
re-f
engine,
27.5%
##60,
##to-d
owner-occupied
mammo
downturns,
tah
##yw
no-growth
geno
[technical
desc
converge
abbreviated
receptors
accu
1.2b
##8.5
negotiations,
4q00
2001.
##@wundernet.com
industryâ
205.
##gov
##ensa
takeout
prescriber
##thei
##onin
##margin
stern
easy-to-
distant
charit
below-market
##cribed
photonics
(gl
respected
secur
230675231/inf
230675231/ine
230675231)
##/do
##niz
##lobal
russia:
##appro
recurrent
1984,
##0.0
##r@
co-op
##/for
407
##./
penni
textual
out-of-st
mid-to-high
azo
46.9
##merican
##dive
collars
bands
51.6
unaware
co-pro
advisers,
##ü
##ka,
deviate
armor
grav
1.51
"al
##eab
##.t
##-denominated
stuff,
jur
in-p
bidder
out-perform
markers
act;
215.
norway,
(p/
2%-
##metry
##id-
##proce
sou
candid
fli
1.72
millipore
inserti
4.75
societe
##tini
##ground
below.
tourist
factors”
(70
(60
##vailab
sunco
ned
mouth
1.66
refunded
similar,
(dri
usg
neuropath
lawsuit,
determinant
curtailments
constructs
off-p
452
(branch
mandatorily
corne
brasil
exempl
ero
##orma
##/in
##tenant
23,0
gateways
barbie
##food
suppressi
201.
patel
indemnifications
(even
steal
net-net
?di
##mmercial
corps
6,9
"he
##idian
##ranch
verb
slower-
bases,
2q9
trevor
recruiting,
adapter
230.
ca,
mortality,
48.9
2022,
##yce
period-over-period
rewarded
non-l
darr
survivor
rah
norw
luk
logging
infringes
biosimilars
"notes
##dw
meritor
invite
activity;
##hart
tax-r
repaying
##621
outer
inefficient
b7
?whi
766
jr.,
invited
foreclosure,
contemplating
447
26.5%
##--t
governs
problematic
https://www.rbccm.com/global/file-414164.pdf
ein
duo
##mpr
debar
2-4
##sth
pfizer,
6x
##ios
catering
insp
51.3
-2.
##/day
cycling
brand-n
##books
business'
"act
##ppi
neb
evp,
[b
##vn
venta
taxo
agro
(ind
##rais
kell
expectations..
-9
##centr
fuels,
##pea
##43853
##ï
##hann
police
514
build-up
add-
2014;
suggesti
lav
##-to-e
##-source
##-ki
##-39
##yb
##unted
##hus
ideas,
hoe
grant,
stuck
entra
lmt
##blow
wn
?st
##uvi
##up,
schul
"outperform"
##inib
other-than-temporarily
kelt
##ylo
##chm
deser
backdrop,
(ib
##aris
volunteers
mcki
##to-e
quarter-on-quarter
localiz
estimates:
cy09
cock
##-gu
reest
##green
firstcall.com
dash
##ella
216.
##maker
stronger,
##rogat
year-on-year,
(mr
wiring
sie
visha
mixed-signal
25-30
kop
##-sp
##done
researching
holistic
attribution
3.45
(ef
##format
##curit
softene
leah
buy-back
?me
535
##-purpose
##olv
eugene
disg
sjg
plywood
adjunct
##tures
##minu
##-cla
##-tech
starte
"ac
##6.5
specificity
(acquired
##2),
##rik
relapse
preci
##imab
##det
##ckl
‘
scanners
production;
formidable
categories;
systems)
cabo
(pu
##peti
##ditional
##lase
opinion.
maz
600.
surfaces
regulations..
forcing
suff
36.5%
##igil
##ecutive
renewal,
pbf
##zani
worsen,
##rovi
##gulation
normalizing
atr
715
stores;
segregat
1.63
##7-0
##--th
(61
zha
directly-
cogniti
(nov
##het
winner
non-competiti
higher-than-
elevator
1,17
##impo
protocol,
market-s
framing
cities,
accrediting
##ulus
controls;
1,16
(consisting
plagu
pdc
##oun
418
roe,
backend
438
bike
above)..
gam
aggressive,
##7.5
##truct
statistics,
promises
inhaled
affords
##pping
recoverable,
economics,
##-loo
donation
53.5
transd
look-up
deerfield
##ecast
anxiety
1,14
##culat
lightweight
##icro
buoy
##tani
##post
silica
reaffirming
bracket
-2%
##major
transacted
tami
(use
##press
##lte
in-m
##-produc
schmidt
neon
fibrillation
cmc
first-half
##ologist
shares-fully
##eigh
hist
123(r),
##alk
arun
totall
remoxy
loft
##shed
stea
non-trad
consent,
2013)
##dma
•di
migrated
charge)
aggre
(uni
sham
peoples'
managements
##-intensive
##uppl
trie
importer
##hase
recast
carbo
##search
##as)
non-su
lone
guidant's
flowe
47.3
##knife
y-y
unsustainabl
bonde
anchored
##pired
scrapp
percentages):
kbr
jpmsi;
cibcwm.com.
##31,
diar
(30%
nominee
fiber,
##vali
##uida
##lton
off-highway
##.w
10th
run-
jh
inverse
opco
##-min
obsolescence,
##port,
overpayment
caa
1-800-47
##eq
##asse
penalize
operat
haven
asy
##-flo
vornado
##uan
greater-than-
cost-effectiveness
1,35
##bie
subordination
hee
corroborat
##lient
vendor-
systems.
developments;
##orporate
decr
[...]
